{
  "version": "1.0",
  "truncation": null,
  "padding": null,
  "added_tokens": [
    {
      "id": 0,
      "content": "[UNK]",
      "single_word": false,
      "lstrip": false,
      "rstrip": false,
      "normalized": false,
      "special": true
    },
    {
      "id": 1,
      "content": "[CLS]",
      "single_word": false,
      "lstrip": false,
      "rstrip": false,
      "normalized": false,
      "special": true
    },
    {
      "id": 2,
      "content": "[SEP]",
      "single_word": false,
      "lstrip": false,
      "rstrip": false,
      "normalized": false,
      "special": true
    },
    {
      "id": 3,
      "content": "[PAD]",
      "single_word": false,
      "lstrip": false,
      "rstrip": false,
      "normalized": false,
      "special": true
    },
    {
      "id": 4,
      "content": "[MASK]",
      "single_word": false,
      "lstrip": false,
      "rstrip": false,
      "normalized": false,
      "special": true
    }
  ],
  "normalizer": null,
  "pre_tokenizer": {
    "type": "Whitespace"
  },
  "post_processor": null,
  "decoder": null,
  "model": {
    "type": "BPE",
    "dropout": null,
    "unk_token": "[UNK]",
    "continuing_subword_prefix": null,
    "end_of_word_suffix": null,
    "fuse_unk": false,
    "byte_fallback": false,
    "vocab": {
      "[UNK]": 0,
      "[CLS]": 1,
      "[SEP]": 2,
      "[PAD]": 3,
      "[MASK]": 4,
      "A": 5,
      "B": 6,
      "C": 7,
      "D": 8,
      "E": 9,
      "F": 10,
      "G": 11,
      "H": 12,
      "I": 13,
      "J": 14,
      "K": 15,
      "L": 16,
      "M": 17,
      "N": 18,
      "O": 19,
      "P": 20,
      "Q": 21,
      "R": 22,
      "S": 23,
      "T": 24,
      "U": 25,
      "V": 26,
      "W": 27,
      "X": 28,
      "Y": 29,
      "Z": 30,
      "|": 31,
      "Ё": 32,
      "А": 33,
      "Б": 34,
      "В": 35,
      "Г": 36,
      "Д": 37,
      "Е": 38,
      "Ж": 39,
      "З": 40,
      "И": 41,
      "Й": 42,
      "К": 43,
      "Л": 44,
      "М": 45,
      "Н": 46,
      "О": 47,
      "П": 48,
      "Р": 49,
      "С": 50,
      "Т": 51,
      "У": 52,
      "Ф": 53,
      "Х": 54,
      "Ц": 55,
      "Ч": 56,
      "Ш": 57,
      "Щ": 58,
      "Ъ": 59,
      "Ы": 60,
      "Ь": 61,
      "Э": 62,
      "Ю": 63,
      "Я": 64,
      "СТ": 65,
      "НИ": 66,
      "НО": 67,
      "РА": 68,
      "КО": 69,
      "РО": 70,
      "НА": 71,
      "КА": 72,
      "РЕ": 73,
      "ЛЬ": 74,
      "ГО": 75,
      "ТЕ": 76,
      "ПО": 77,
      "НЫ": 78,
      "ЛЕ": 79,
      "ВО": 80,
      "ЛИ": 81,
      "ЛО": 82,
      "КИ": 83,
      "ВА": 84,
      "ЕН": 85,
      "ТО": 86,
      "РИ": 87,
      "ТА": 88,
      "ЛА": 89,
      "МО": 90,
      "ЕНИ": 91,
      "ЗА": 92,
      "РУ": 93,
      "БО": 94,
      "ТИ": 95,
      "ЧЕ": 96,
      "МА": 97,
      "ДО": 98,
      "ЦИ": 99,
      "МЕ": 100,
      "СО": 101,
      "RA": 102,
      "IC": 103,
      "DE": 104,
      "ET": 105,
      "RADE": 106,
      "ICET": 107,
      "ICETRADE": 108,
      "ИН": 109,
      "ВЕ": 110,
      "ОБ": 111,
      "СКО": 112,
      "СКА": 113,
      "ПРО": 114,
      "НАЯ": 115,
      "СКИ": 116,
      "ЛЯ": 117,
      "НЫЙ": 118,
      "ДА": 119,
      "КОМ": 120,
      "НЕ": 121,
      "ВИ": 122,
      "СКАЯ": 123,
      "ДЕ": 124,
      "ПА": 125,
      "НОЙ": 126,
      "ВЫ": 127,
      "НИЯ": 128,
      "ГИ": 129,
      "МИ": 130,
      "ПЕ": 131,
      "ТЕЛЬ": 132,
      "БЕ": 133,
      "ГА": 134,
      "АО": 135,
      "СТА": 136,
      "ОАО": 137,
      "КУ": 138,
      "ДИ": 139,
      "НОЕ": 140,
      "ПРЕ": 141,
      "ПРИ": 142,
      "НОГО": 143,
      "ЕНИЯ": 144,
      "СКИЙ": 145,
      "НЫХ": 146,
      "ЕНИЕ": 147,
      "КТ": 148,
      "СЕ": 149,
      "СИ": 150,
      "СТИ": 151,
      "СТВ": 152,
      "СТРО": 153,
      "СУ": 154,
      "СА": 155,
      "РАН": 156,
      "ИЗ": 157,
      "УЧ": 158,
      "ХО": 159,
      "ПЛЕ": 160,
      "ДЛЯ": 161,
      "ЖИ": 162,
      "ЛУ": 163,
      "НИЕ": 164,
      "ОТ": 165,
      "СТЬ": 166,
      "НЫЕ": 167,
      "БИ": 168,
      "ЕНТ": 169,
      "БА": 170,
      "ЖД": 171,
      "ЩИ": 172,
      "ЦИИ": 173,
      "ПИ": 174,
      "РАБО": 175,
      "ЧИ": 176,
      "ШТ": 177,
      "ПРЕД": 178,
      "ЩЕ": 179,
      "ЧА": 180,
      "КОН": 181,
      "ОН": 182,
      "СТЕ": 183,
      "УЛ": 184,
      "ФИ": 185,
      "МУ": 186,
      "МОН": 187,
      "ПУ": 188,
      "СТВЕН": 189,
      "РЫ": 190,
      "ОБЛА": 191,
      "МЕН": 192,
      "ЗО": 193,
      "РАБОТ": 194,
      "СКОГО": 195,
      "КОМПЛЕ": 196,
      "РЕЖД": 197,
      "ПОД": 198,
      "КЕ": 199,
      "УЧРЕЖД": 200,
      "НИЧЕ": 201,
      "ВОД": 202,
      "СТО": 203,
      "МИН": 204,
      "ТУ": 205,
      "УЧРЕЖДЕНИЕ": 206,
      "РАЙ": 207,
      "ДУ": 208,
      "ТЕХ": 209,
      "РОД": 210,
      "УП": 211,
      "ТОР": 212,
      "ОХ": 213,
      "ЦА": 214,
      "СТВО": 215,
      "СК": 216,
      "ЦЕНТ": 217,
      "ДРА": 218,
      "ЯТИ": 219,
      "СЛУ": 220,
      "ВОЙ": 221,
      "ПРЕДПРИ": 222,
      "ЦЕ": 223,
      "ОР": 224,
      "РАНЕНИЯ": 225,
      "ВЛЕ": 226,
      "ПРЕДПРИЯТИ": 227,
      "ЗИ": 228,
      "ВАНИЯ": 229,
      "ДАР": 230,
      "ВЕТ": 231,
      "ЗДРА": 232,
      "ВООХ": 233,
      "ЗДРАВООХ": 234,
      "ПОЛ": 235,
      "АНА": 236,
      "ТЫ": 237,
      "ЗДРАВООХРАНЕНИЯ": 238,
      "ПРЕДПРИЯТИЕ": 239,
      "СТВА": 240,
      "ВТО": 241,
      "МЫ": 242,
      "СТРОИ": 243,
      "КС": 244,
      "ЪЕ": 245,
      "РОВ": 246,
      "ОБЛАСТЬ": 247,
      "СТРОИТЕЛЬ": 248,
      "СКОЙ": 249,
      "ЛЬНИ": 250,
      "ПЕРЕ": 251,
      "РЕМОН": 252,
      "ВЕР": 253,
      "ТЬ": 254,
      "ЦИЯ": 255,
      "ГОСУ": 256,
      "ГОСУДАР": 257,
      "ВАН": 258,
      "СТВЕННОЕ": 259,
      "ММ": 260,
      "ЛЮ": 261,
      "РАЗ": 262,
      "ТЕРИ": 263,
      "ТЕХНИЧЕ": 264,
      "ВАЯ": 265,
      "ЛЬНАЯ": 266,
      "РЯ": 267,
      "ГРУ": 268,
      "ТРЕ": 269,
      "ФА": 270,
      "РАС": 271,
      "ЭЛЕ": 272,
      "ЖЕ": 273,
      "ШИ": 274,
      "ТОВ": 275,
      "ЖА": 276,
      "ЛОГИ": 277,
      "АВТО": 278,
      "ИЛИ": 279,
      "СТРОЙ": 280,
      "ХА": 281,
      "БОЛЬНИ": 282,
      "АГ": 283,
      "БУ": 284,
      "ГОСУДАРСТВЕННОЕ": 285,
      "УПРА": 286,
      "ЛОГ": 287,
      "СКОЕ": 288,
      "КОВ": 289,
      "НАТ": 290,
      "БОЛЬНИЦА": 291,
      "ЗЕ": 292,
      "РУС": 293,
      "МЕЛЬ": 294,
      "СЛО": 295,
      "ОБЪЕ": 296,
      "ТЕР": 297,
      "НЕР": 298,
      "ЦЕНТРА": 299,
      "КОМБИ": 300,
      "РЕМОНТ": 301,
      "ЭЛЕКТ": 302,
      "АНАЛОГ": 303,
      "ОБО": 304,
      "БЕЛ": 305,
      "СНО": 306,
      "ПРОИЗ": 307,
      "ОНА": 308,
      "ГОМЕЛЬ": 309,
      "ЩА": 310,
      "ПЛА": 311,
      "КЛИ": 312,
      "УСЛУ": 313,
      "СИСТЕ": 314,
      "ПОЛИ": 315,
      "ГРОД": 316,
      "ГРА": 317,
      "ПОР": 318,
      "СЯ": 319,
      "НЫМ": 320,
      "МЯ": 321,
      "БРЕ": 322,
      "МОГИ": 323,
      "КЛА": 324,
      "ЛЬНЫЙ": 325,
      "ДЕР": 326,
      "РАЙОН": 327,
      "ВКА": 328,
      "ЮЩИ": 329,
      "РОВАН": 330,
      "УНИ": 331,
      "КОМБИНАТ": 332,
      "AR": 333,
      "ЛОЖ": 334,
      "РУП": 335,
      "БОР": 336,
      "НУ": 337,
      "МОГИЛЕ": 338,
      "НОСТИ": 339,
      "СПЕ": 340,
      "ТАР": 341,
      "ТИЧЕ": 342,
      "ТЕРИА": 343,
      "БЕЛА": 344,
      "ФОР": 345,
      "ГЛА": 346,
      "ЛОТ": 347,
      "ВАНИЕ": 348,
      "IN": 349,
      "КРЫ": 350,
      "ВИТЕ": 351,
      "ОО": 352,
      "ЦИОН": 353,
      "РЕД": 354,
      "ЛИЧЕ": 355,
      "МАТЕРИА": 356,
      "РЕС": 357,
      "БРЕСТ": 358,
      "ИС": 359,
      "ДИН": 360,
      "КУП": 361,
      "ТАЖ": 362,
      "МЕНТА": 363,
      "МОГИЛЕВ": 364,
      "ЦЕНТРАЛЬНАЯ": 365,
      "ГЕ": 366,
      "КАР": 367,
      "БЛИ": 368,
      "ВОЗ": 369,
      "НИЗА": 370,
      "РУДО": 371,
      "НЕН": 372,
      "ER": 373,
      "ТРАН": 374,
      "СТРУ": 375,
      "ФЕ": 376,
      "КОЙ": 377,
      "СКИЕ": 378,
      "СТАНО": 379,
      "ВИТЕБ": 380,
      "КОМПЛЕКТ": 381,
      "ВЫЙ": 382,
      "ОБОРУДО": 383,
      "ЩАЯ": 384,
      "КОМПЛЕК": 385,
      "ГУ": 386,
      "ЛЫ": 387,
      "КОР": 388,
      "ПРОИЗВОД": 389,
      "НИЮ": 390,
      "ВЛЯ": 391,
      "НИЙ": 392,
      "ТРАНС": 393,
      "МОНТАЖ": 394,
      "ПРОЕ": 395,
      "ЭЛЕКТРО": 396,
      "МЕТ": 397,
      "ПУБЛИ": 398,
      "РЕСПУБЛИ": 399,
      "КРО": 400,
      "СКИХ": 401,
      "ПЛО": 402,
      "ВЛЕНИЯ": 403,
      "ЮЩЕ": 404,
      "ЛИЗА": 405,
      "РАЙОННАЯ": 406,
      "ШЕ": 407,
      "УНИТАР": 408,
      "РЯД": 409,
      "ЛЕН": 410,
      "ПРА": 411,
      "ON": 412,
      "ПОЛН": 413,
      "СТВУ": 414,
      "ПАРА": 415,
      "ЛЕЙ": 416,
      "ЮЩАЯ": 417,
      "ДОКУ": 418,
      "НОСТЬ": 419,
      "ЦИН": 420,
      "МАР": 421,
      "ЭНЕР": 422,
      "РАЙОНА": 423,
      "ША": 424,
      "ПЕР": 425,
      "ПРОДУ": 426,
      "ГРОДНЕН": 427,
      "ЗДА": 428,
      "ЛОВ": 429,
      "УНИТАРНОЕ": 430,
      "ГОРОД": 431,
      "МИНСК": 432,
      "ТРУ": 433,
      "СРЕД": 434,
      "ЗЫ": 435,
      "СЫ": 436,
      "ЖИЛО": 437,
      "ХОЛ": 438,
      "СЕР": 439,
      "ОТВЕТ": 440,
      "КЦИ": 441,
      "ЧНЫЙ": 442,
      "ВАР": 443,
      "ЖЕН": 444,
      "ТРО": 445,
      "КРА": 446,
      "СТАВ": 447,
      "ЗАКУП": 448,
      "ОД": 449,
      "ТКА": 450,
      "КОМПА": 451,
      "БЛО": 452,
      "УСТАНО": 453,
      "СОГЛА": 454,
      "ХОЛДИН": 455,
      "КЛЮ": 456,
      "ТРИ": 457,
      "КАЗА": 458,
      "БЕЛАРУС": 459,
      "BI": 460,
      "СТВИ": 461,
      "ПОДРЯД": 462,
      "ВЫХ": 463,
      "ГРУЗ": 464,
      "ЛОГИЧЕ": 465,
      "БЫ": 466,
      "РНЫЙ": 467,
      "AN": 468,
      "ВОГО": 469,
      "ТИВ": 470,
      "ВОДО": 471,
      "ФУ": 472,
      "ЦЕНТР": 473,
      "СОВ": 474,
      "НИКА": 475,
      "ЛЬНОГО": 476,
      "УСТРОЙ": 477,
      "МЕДИ": 478,
      "ST": 479,
      "КОМПАНИЯ": 480,
      "ПИТА": 481,
      "ВЫПОЛН": 482,
      "ДОКУМЕНТА": 483,
      "АР": 484,
      "КОНСТРУ": 485,
      "УПРАВЛЯ": 486,
      "БЕЛАРУСЬ": 487,
      "ПРОЕКТ": 488,
      "UT": 489,
      "НОМ": 490,
      "СТАН": 491,
      "СООТВЕТ": 492,
      "КОМПЛЕКС": 493,
      "ОБЛАСТ": 494,
      "КОЛИЧЕ": 495,
      "ВЫЕ": 496,
      "АН": 497,
      "КОММУ": 498,
      "ТСЯ": 499,
      "БРИ": 500,
      "ХИ": 501,
      "МЕТА": 502,
      "ЗАЩИ": 503,
      "МЯСО": 504,
      "ВЕД": 505,
      "DM": 506,
      "ВЛЕНИЕ": 507,
      "АВТОМА": 508,
      "СЛЕ": 509,
      "ЛЬНОЙ": 510,
      "ОБОРУДОВАНИЯ": 511,
      "УПРАВЛЯЮЩАЯ": 512,
      "ХОД": 513,
      "ЕНИЮ": 514,
      "ХОЛДИНГА": 515,
      "EN": 516,
      "ART": 517,
      "УСЛУГИ": 518,
      "КГ": 519,
      "ХОЗ": 520,
      "ТРА": 521,
      "КЛИНИЧЕ": 522,
      "БЕЛО": 523,
      "ПЛИ": 524,
      "КТУ": 525,
      "АГРО": 526,
      "ЭНЕРГО": 527,
      "ПРОДУК": 528,
      "ФО": 529,
      "ЧАСТИ": 530,
      "СОГЛАСНО": 531,
      "МЕДИЦИН": 532,
      "ОРГА": 533,
      "МК": 534,
      "ЗАВОД": 535,
      "СИСТЕМЫ": 536,
      "ВУ": 537,
      "ЛОГИИ": 538,
      "ЦВЕТ": 539,
      "ТОМ": 540,
      "ТЕЙ": 541,
      "ЗАДА": 542,
      "МЕР": 543,
      "УЧА": 544,
      "ОБЪЕК": 545,
      "ДОМ": 546,
      "ДЕЛЕ": 547,
      "КАБЕ": 548,
      "СТРОИТЕЛЬСТВА": 549,
      "АД": 550,
      "НКА": 551,
      "СВЕ": 552,
      "ТЕЛЯ": 553,
      "ГОРОДСКАЯ": 554,
      "ФИЛИ": 555,
      "МОЛО": 556,
      "ТОН": 557,
      "ВЯ": 558,
      "НИК": 559,
      "RO": 560,
      "ФОРМА": 561,
      "ВИЧ": 562,
      "НЯ": 563,
      "УПА": 564,
      "БРЕСТСКАЯ": 565,
      "ТОРА": 566,
      "ЕНИЙ": 567,
      "ДЫ": 568,
      "КРЕ": 569,
      "АК": 570,
      "ОБСЛУ": 571,
      "НИИ": 572,
      "ОБСЛУЖИ": 573,
      "ТЕПЛО": 574,
      "CO": 575,
      "ПРИЛОЖ": 576,
      "МЕНЕ": 577,
      "DMART": 578,
      "BIDMART": 579,
      "КАН": 580,
      "СНА": 581,
      "BUT": 582,
      "КВ": 583,
      "СТРА": 584,
      "ПАС": 585,
      "ДЕЛИ": 586,
      "ЧНАЯ": 587,
      "ШКА": 588,
      "BUTB": 589,
      "НИТЕЛЬ": 590,
      "ТЕЛЕ": 591,
      "КОНСТРУК": 592,
      "ПИЩЕ": 593,
      "ОБЕ": 594,
      "МЯСОКОМБИНАТ": 595,
      "ССО": 596,
      "МОБИ": 597,
      "ЛИН": 598,
      "РЕЗ": 599,
      "AL": 600,
      "СООТВЕТСТВИ": 601,
      "ЧЕНИЯ": 602,
      "ВНУ": 603,
      "ГОМЕЛЬСКАЯ": 604,
      "ЧЕР": 605,
      "ЛЬНОЕ": 606,
      "ПОДРЯДНОЙ": 607,
      "МЕНА": 608,
      "US": 609,
      "ФИЛИА": 610,
      "МЕТАЛ": 611,
      "ДОРО": 612,
      "ЦЫ": 613,
      "МЕНТ": 614,
      "ОРГАНИЗА": 615,
      "ГОР": 616,
      "EL": 617,
      "ООО": 618,
      "НЕЙ": 619,
      "ПРОИЗВОДСТВА": 620,
      "ОБРА": 621,
      "МАЗ": 622,
      "ФИЛЬ": 623,
      "ДОКУМЕНТАЦИИ": 624,
      "ВЕН": 625,
      "СТВЕ": 626,
      "НЫМИ": 627,
      "ИМ": 628,
      "ЗЕР": 629,
      "ДРО": 630,
      "ОБЩЕ": 631,
      "AT": 632,
      "ТРАНСПОР": 633,
      "ДЕЙ": 634,
      "МНОГО": 635,
      "МОГИЛЕВСКАЯ": 636,
      "МОДЕР": 637,
      "БЕЛОРУС": 638,
      "ВИЧИ": 639,
      "МЕЩ": 640,
      "МОДЕРНИЗА": 641,
      "КОММУНА": 642,
      "АВТОМОБИ": 643,
      "КИЙ": 644,
      "СП": 645,
      "РУЖ": 646,
      "ГАЗ": 647,
      "ЛЬНЫХ": 648,
      "НОВ": 649,
      "РАК": 650,
      "ПРОВЕД": 651,
      "ЕМ": 652,
      "ТОРИ": 653,
      "РЕН": 654,
      "ДОВ": 655,
      "УПРАВЛЕНИЯ": 656,
      "КОРПУ": 657,
      "МЕНЕЕ": 658,
      "ВЫПОЛНЕНИЕ": 659,
      "ЗДАНИЯ": 660,
      "МИНИ": 661,
      "СНАБ": 662,
      "ЦО": 663,
      "РОМ": 664,
      "ЗАКУПКА": 665,
      "ЭКС": 666,
      "ТКИ": 667,
      "СКОМУ": 668,
      "ПЫ": 669,
      "ЗНА": 670,
      "CH": 671,
      "ЛЬНЫЕ": 672,
      "ЧЕТ": 673,
      "ГРОДНО": 674,
      "ТРЕН": 675,
      "АП": 676,
      "РЬ": 677,
      "КОНСТРУКЦИЯ": 678,
      "ВОРО": 679,
      "УСЛУГ": 680,
      "МИКРО": 681,
      "МОНТАЖНЫХ": 682,
      "АВТОМАТИЧЕ": 683,
      "ДОМА": 684,
      "ЧНЫХ": 685,
      "ДОБА": 686,
      "СС": 687,
      "ЧЕН": 688,
      "РЕСПУБЛИКАН": 689,
      "ПРЯ": 690,
      "РОМА": 691,
      "ЛЕЗ": 692,
      "ПАР": 693,
      "СПЕЦИ": 694,
      "ВНУТРЕН": 695,
      "РАБОТЫ": 696,
      "ВЫБОР": 697,
      "СООТВЕТСТВИИ": 698,
      "ВКИ": 699,
      "ЕНИЕМ": 700,
      "РЕСПУБЛИКИ": 701,
      "ГОТО": 702,
      "КЛИНИЧЕСКАЯ": 703,
      "КРЫТИ": 704,
      "OR": 705,
      "ОБЪЕКТУ": 706,
      "КВАР": 707,
      "ГЕН": 708,
      "ХАРАК": 709,
      "ПОЛО": 710,
      "ПЕРА": 711,
      "РЕКОНСТРУКЦИЯ": 712,
      "АНТИ": 713,
      "РЕСУ": 714,
      "ДЕРЖА": 715,
      "ХАРАКТЕРИ": 716,
      "КОЛ": 717,
      "ВАНИЮ": 718,
      "ХАРАКТЕРИСТИ": 719,
      "ЕТСЯ": 720,
      "IT": 721,
      "ГАЗО": 722,
      "ЗИН": 723,
      "ОК": 724,
      "НК": 725,
      "МИЧЕ": 726,
      "ОДНО": 727,
      "РИЧЕ": 728,
      "КОЛИЧЕСТВЕ": 729,
      "ИЗО": 730,
      "ЮЩИЙ": 731,
      "БРУ": 732,
      "ЭТИ": 733,
      "ЕЙ": 734,
      "СТЕР": 735,
      "ШКИ": 736,
      "СТРОИТЕЛЬСТВО": 737,
      "СМО": 738,
      "ЖИЛОГО": 739,
      "ПЕЧА": 740,
      "ПОМЕЩ": 741,
      "ГРОДНЕНСКАЯ": 742,
      "ВИТЕБСКАЯ": 743,
      "ЯЙ": 744,
      "НП": 745,
      "ОРГАНИЗАЦИИ": 746,
      "ЧНОЙ": 747,
      "КИСЛО": 748,
      "СТРОИТЕЛЬНО": 749,
      "ВОДИ": 750,
      "ТЕХНО": 751,
      "ЕР": 752,
      "ДОСТА": 753,
      "КОНТРО": 754,
      "ЕМЫ": 755,
      "ДЕН": 756,
      "СЬ": 757,
      "КАНА": 758,
      "ДИА": 759,
      "КАБЕЛЬ": 760,
      "ЛАН": 761,
      "ДЕТ": 762,
      "ТР": 763,
      "ТНЫЙ": 764,
      "ПОЛЬ": 765,
      "СЕТИ": 766,
      "ГОСТ": 767,
      "УЧАСТ": 768,
      "ГРУЗО": 769,
      "БИН": 770,
      "КОЛО": 771,
      "СТОЙ": 772,
      "ВОДА": 773,
      "СРО": 774,
      "ЧНОГО": 775,
      "УСТРОЙСТВО": 776,
      "КОМПЛЕКТЕ": 777,
      "МОДЕРНИЗАЦИЯ": 778,
      "ХОЗЯЙ": 779,
      "ЕНИИ": 780,
      "ПИЩЕВАЯ": 781,
      "КЛО": 782,
      "КЛЕ": 783,
      "ТОК": 784,
      "АУ": 785,
      "КЛИНИКА": 786,
      "AS": 787,
      "БУМА": 788,
      "РЕГУ": 789,
      "ДВИ": 790,
      "ЧКА": 791,
      "ПВ": 792,
      "СИСТЕМА": 793,
      "ДОЛ": 794,
      "ЩИЙ": 795,
      "КАЯ": 796,
      "ТУРА": 797,
      "ВЫСО": 798,
      "ДОБАВКА": 799,
      "ТРЕСТ": 800,
      "ЗУ": 801,
      "RE": 802,
      "ПАН": 803,
      "IS": 804,
      "ФИЛИАЛ": 805,
      "ПОКРЫТИ": 806,
      "ОСНО": 807,
      "РАЗРАБОТ": 808,
      "ФТА": 809,
      "КОГО": 810,
      "ТЕХНИЧЕСКОМУ": 811,
      "СЕЛЬ": 812,
      "ЖЕНИЯ": 813,
      "MA": 814,
      "ЛЯТОР": 815,
      "СМ": 816,
      "ДВУ": 817,
      "НАСО": 818,
      "НАЛА": 819,
      "МАТЕРИАЛ": 820,
      "СОР": 821,
      "ОБРАЗО": 822,
      "ПОЛИКЛИНИКА": 823,
      "ПЛАСТИ": 824,
      "ТЕКУ": 825,
      "ТЕН": 826,
      "ЖИЛОЙ": 827,
      "OL": 828,
      "ТУР": 829,
      "ЭК": 830,
      "ПОСТАВ": 831,
      "ТЕМ": 832,
      "КОММУНАЛЬНОЕ": 833,
      "МОЙ": 834,
      "ИМЕ": 835,
      "КАЛИ": 836,
      "АППАРА": 837,
      "ТОВА": 838,
      "АУДИ": 839,
      "ОБЕСПЕ": 840,
      "ЛАГА": 841,
      "ПРОИЗВОДИ": 842,
      "СОСТА": 843,
      "НОВО": 844,
      "РЕАГ": 845,
      "ПРЕПАРА": 846,
      "ЗАПАС": 847,
      "ЦКИЙ": 848,
      "БЕЗ": 849,
      "ТЕРМО": 850,
      "ГОВО": 851,
      "НЕФ": 852,
      "ЖЕЛЕЗ": 853,
      "ПП": 854,
      "ПТИ": 855,
      "ИЗДЕЛИ": 856,
      "ТЕХНИЧЕСКОГО": 857,
      "АНАЛИЗА": 858,
      "КАПИТА": 859,
      "ЮЩЕЙ": 860,
      "ЛЬНО": 861,
      "АДРЕСУ": 862,
      "СОДЕРЖА": 863,
      "КРУ": 864,
      "IL": 865,
      "ПРОВОД": 866,
      "ШКО": 867,
      "КВАРТИ": 868,
      "МАТО": 869,
      "ННЫЙ": 870,
      "ВОЛ": 871,
      "ТРЕБО": 872,
      "ФИНА": 873,
      "РИНА": 874,
      "УКАЗА": 875,
      "ВЕРХ": 876,
      "ИНВ": 877,
      "ЛИЗАЦИИ": 878,
      "СВЯ": 879,
      "ЧИК": 880,
      "РОВО": 881,
      "ЕВ": 882,
      "ВЕЩЕ": 883,
      "НИКИ": 884,
      "ОБЪЕКТА": 885,
      "КЛАД": 886,
      "РОВАНИЯ": 887,
      "ЧИКА": 888,
      "БРУЙ": 889,
      "БОБРУЙ": 890,
      "ЗИРОВАН": 891,
      "ДЕЙСТВУ": 892,
      "ГРОДНЕНСКИЙ": 893,
      "МАТЕРИАЛЫ": 894,
      "ЗАЩИТЫ": 895,
      "РЕМОНТУ": 896,
      "МАРКИ": 897,
      "ЕРА": 898,
      "УПРАВЛЕНИЕ": 899,
      "МОЗЫ": 900,
      "КОМПЛЕКСНАЯ": 901,
      "ПИН": 902,
      "КСИ": 903,
      "СТЕЙ": 904,
      "ХЛЕ": 905,
      "СЕМЕНА": 906,
      "ТОРЫ": 907,
      "ПОЛНИТЕЛЬ": 908,
      "СПЕЦИА": 909,
      "ПРЕДОСТА": 910,
      "ПОЛУ": 911,
      "БЛОК": 912,
      "СЕРВИ": 913,
      "УЧЕ": 914,
      "ПРОМ": 915,
      "КОМПЛЕКСА": 916,
      "ЮЩИЕ": 917,
      "ВОЗДУ": 918,
      "ТИЧЕСКИЙ": 919,
      "СУБ": 920,
      "ДЕЛЕНИЯ": 921,
      "КТИ": 922,
      "ПУСКО": 923,
      "ПРОЦЕ": 924,
      "КЛЮЧА": 925,
      "СРЕДСТВО": 926,
      "ФИКА": 927,
      "РОЙ": 928,
      "ГЛУ": 929,
      "ПР": 930,
      "ТЕЛЕЙ": 931,
      "МИНСКИЙ": 932,
      "ОБОРУДОВАНИЕ": 933,
      "СМЕ": 934,
      "ОЧЕ": 935,
      "ТЕРРИ": 936,
      "ТЕРРИТОРИ": 937,
      "АРОМА": 938,
      "ГОСУДАРСТВЕН": 939,
      "LE": 940,
      "СЛЕДО": 941,
      "МТ": 942,
      "ФУН": 943,
      "КОЛЬ": 944,
      "СЛИ": 945,
      "ВИН": 946,
      "МЕХА": 947,
      "НИЕМ": 948,
      "КРАС": 949,
      "ОЛОГИИ": 950,
      "ХЛО": 951,
      "НАРУЖ": 952,
      "AC": 953,
      "ГРЕ": 954,
      "КУР": 955,
      "ОТКРЫ": 956,
      "СКИМ": 957,
      "СИЛИ": 958,
      "ФАБРИ": 959,
      "ЧИСТ": 960,
      "ИНТЕ": 961,
      "ВТ": 962,
      "ЧНЫЕ": 963,
      "МЕТАЛЛИЧЕ": 964,
      "ИНЖЕН": 965,
      "РОН": 966,
      "ССИ": 967,
      "ПОЛОЖ": 968,
      "УПАКОВ": 969,
      "ХОДИ": 970,
      "СКЕ": 971,
      "ИЗГОТО": 972,
      "ОНЕ": 973,
      "НОСТЬЮ": 974,
      "ВАТЬ": 975,
      "ТЕХНИЧЕСКОЕ": 976,
      "МАТЕРИАЛОВ": 977,
      "ПВХ": 978,
      "ГИДРО": 979,
      "ОП": 980,
      "КОРО": 981,
      "ЛАМИ": 982,
      "НАБОР": 983,
      "ФАБРИКА": 984,
      "НАЗНА": 985,
      "ТНЫХ": 986,
      "РЕДЬ": 987,
      "РИЯ": 988,
      "ЭН": 989,
      "ИНЖЕНЕР": 990,
      "ОБЛАСТНАЯ": 991,
      "ПОЖА": 992,
      "ЧНО": 993,
      "БАРА": 994,
      "ОЧЕРЕДЬ": 995,
      "КРЕПЛЕ": 996,
      "ГЕР": 997,
      "СУЩЕ": 998,
      "ЮЩИХ": 999,
      "ТОЛ": 1000,
      "МОЖ": 1001,
      "ГРАНИ": 1002,
      "БОРА": 1003,
      "ТИЗА": 1004,
      "ЭЛЕКТРИЧЕ": 1005,
      "ВЕНТИ": 1006,
      "ЛЕС": 1007,
      "АС": 1008,
      "ПУСКА": 1009,
      "ОКАЗА": 1010,
      "ТВЕР": 1011,
      "ПИТАНИЯ": 1012,
      "УСЛО": 1013,
      "МИНСКАЯ": 1014,
      "ДВУХ": 1015,
      "СЕРВИС": 1016,
      "ВИДЕ": 1017,
      "МГ": 1018,
      "ПОДЪЕ": 1019,
      "ФЕК": 1020,
      "СОВЕТ": 1021,
      "СТЕН": 1022,
      "SI": 1023,
      "САМО": 1024,
      "ОРИ": 1025,
      "СТОЯ": 1026,
      "МОДУ": 1027,
      "УЛИ": 1028,
      "PL": 1029,
      "ТЕРРИТОРИИ": 1030,
      "ОБЛАСТНОЙ": 1031,
      "ЫЙ": 1032,
      "ФИНАН": 1033,
      "ГРАФИ": 1034,
      "РБ": 1035,
      "МАШИ": 1036,
      "ОНЕР": 1037,
      "КОВЫ": 1038,
      "ТНАЯ": 1039,
      "УНИВЕР": 1040,
      "НИХ": 1041,
      "ЛОГО": 1042,
      "ЛЕНИ": 1043,
      "ЦИЕЙ": 1044,
      "ЖИЛИ": 1045,
      "СОЕ": 1046,
      "ВОЛО": 1047,
      "ПЕРЕВОЗ": 1048,
      "СЛА": 1049,
      "ТЕКУЩИЙ": 1050,
      "ВЛЕН": 1051,
      "ПРОДУКТОВ": 1052,
      "НЕС": 1053,
      "TE": 1054,
      "OS": 1055,
      "ОПРЕ": 1056,
      "ТЕМПЕРА": 1057,
      "СВЕТ": 1058,
      "КЦИЙ": 1059,
      "ПРОЕКТНО": 1060,
      "ГОТОВ": 1061,
      "ВИТЕЛЬ": 1062,
      "AD": 1063,
      "ЗАКА": 1064,
      "ЧЕНИЕ": 1065,
      "МАШ": 1066,
      "НАД": 1067,
      "ДАН": 1068,
      "ТЯ": 1069,
      "СИСТЕМ": 1070,
      "ЛЕЕ": 1071,
      "РАСПОЛОЖ": 1072,
      "КСА": 1073,
      "ОБЪЕКТЕ": 1074,
      "ОБСЛУЖИВАНИЕ": 1075,
      "ПОЛЬЗО": 1076,
      "ТЕХНИЧЕСКИЕ": 1077,
      "ТРУБ": 1078,
      "КАТА": 1079,
      "СКЛА": 1080,
      "САХА": 1081,
      "МЫШ": 1082,
      "УСЛОВИ": 1083,
      "МКМ": 1084,
      "СВЕТО": 1085,
      "МАСЛО": 1086,
      "НОВАЯ": 1087,
      "ВД": 1088,
      "ЖИЛИЩ": 1089,
      "ПЕРИ": 1090,
      "КОРПУСА": 1091,
      "УПЛОТ": 1092,
      "АРТ": 1093,
      "УСТАНОВКИ": 1094,
      "ДЕЙСТВУЮЩЕ": 1095,
      "СОВОЙ": 1096,
      "МАЯ": 1097,
      "СТЕРИ": 1098,
      "УК": 1099,
      "МОЗЫР": 1100,
      "ПРОДУКЦИИ": 1101,
      "РИРОВАН": 1102,
      "ЗАО": 1103,
      "IP": 1104,
      "ТЕЛИ": 1105,
      "ТИПА": 1106,
      "ХАРАКТЕРИСТИКИ": 1107,
      "УСТАНОВКА": 1108,
      "ОТКРЫТО": 1109,
      "ДЕМИ": 1110,
      "КОЛИЧЕСТВО": 1111,
      "ГОРО": 1112,
      "НЕОБ": 1113,
      "ПРОИЗВОДИТЕЛЬ": 1114,
      "ПРИЛОЖЕНИЕ": 1115,
      "ЦЕН": 1116,
      "ТРЕБОВАНИЯ": 1117,
      "ГИБРИ": 1118,
      "ШКАФ": 1119,
      "ССА": 1120,
      "МОГО": 1121,
      "РАЙОНЕ": 1122,
      "СОСТАВ": 1123,
      "ПОСТА": 1124,
      "ПАНЕ": 1125,
      "ВАТЕЛЬ": 1126,
      "НЕОБХОДИ": 1127,
      "РАСТВО": 1128,
      "РАСПОЛОЖЕН": 1129,
      "СТРОЙТРЕСТ": 1130,
      "ПРОГРА": 1131,
      "КОМП": 1132,
      "ЭПИ": 1133,
      "ИМЕНО": 1134,
      "ПС": 1135,
      "НАИМЕНО": 1136,
      "РАЗМЕ": 1137,
      "ЦКАЯ": 1138,
      "НОМУ": 1139,
      "ЬЮ": 1140,
      "РАСХОД": 1141,
      "МАРШ": 1142,
      "ЕНТЫ": 1143,
      "МАРШРУ": 1144,
      "ЛИСТ": 1145,
      "ШИП": 1146,
      "МНОГОКВАРТИ": 1147,
      "ПРИМЕН": 1148,
      "СТБ": 1149,
      "ЗАМЕНА": 1150,
      "СТВЕННОГО": 1151,
      "МП": 1152,
      "УСЛУГА": 1153,
      "ДОМО": 1154,
      "МПА": 1155,
      "PRO": 1156,
      "ЛОГИЧЕСКИЙ": 1157,
      "МЕНТОВ": 1158,
      "ЛКА": 1159,
      "ХОЛО": 1160,
      "ГОМЕЛЬСКИЙ": 1161,
      "ЦВЕ": 1162,
      "ИЗОЛЯ": 1163,
      "ОБЛАСТИ": 1164,
      "БЕРЕ": 1165,
      "НАСОС": 1166,
      "ДОК": 1167,
      "ГРУЗКА": 1168,
      "ГОД": 1169,
      "МОРО": 1170,
      "ПАКЕ": 1171,
      "МЕТР": 1172,
      "ЛЕТ": 1173,
      "РЕСПУБЛИКАНСКИЙ": 1174,
      "ВКУ": 1175,
      "ВЕС": 1176,
      "МЛ": 1177,
      "СПО": 1178,
      "ИЗМЕ": 1179,
      "МЗ": 1180,
      "ЗАПАСНЫЕ": 1181,
      "ЯБ": 1182,
      "ПРОПИ": 1183,
      "ЗАКАЗ": 1184,
      "СКОМ": 1185,
      "ТАК": 1186,
      "ХЛЕБО": 1187,
      "ГРУП": 1188,
      "ЕТ": 1189,
      "БРА": 1190,
      "НСКАЯ": 1191,
      "ОБСЛУЖИВАНИЮ": 1192,
      "ТРУБА": 1193,
      "ССОР": 1194,
      "НД": 1195,
      "ОБЛ": 1196,
      "НКИ": 1197,
      "ДЕЛЕНИЕ": 1198,
      "ЦИЙ": 1199,
      "СЕТЕЙ": 1200,
      "ЛИБО": 1201,
      "ЗАДАНИЯ": 1202,
      "ПЛУ": 1203,
      "ЧКИ": 1204,
      "OW": 1205,
      "ИНДИ": 1206,
      "МОТОР": 1207,
      "АКЦИ": 1208,
      "РАМ": 1209,
      "КАМИ": 1210,
      "ДОРОГИ": 1211,
      "НИЗ": 1212,
      "СВЯЗИ": 1213,
      "ОБЯ": 1214,
      "КВТ": 1215,
      "ES": 1216,
      "ТАЦИИ": 1217,
      "ПОДШИП": 1218,
      "АКЦИОНЕР": 1219,
      "КОНЦЕНТРА": 1220,
      "ФАСО": 1221,
      "БЕН": 1222,
      "ИЗЫ": 1223,
      "ИЗЫСКА": 1224,
      "НУЮ": 1225,
      "УЗ": 1226,
      "ТНОГО": 1227,
      "ВОЛКОВЫ": 1228,
      "НЯЯ": 1229,
      "ДИО": 1230,
      "ОБЯЗА": 1231,
      "ДИАГ": 1232,
      "ЗАДАНИЮ": 1233,
      "СРОК": 1234,
      "НЕВ": 1235,
      "ING": 1236,
      "ВОДЫ": 1237,
      "КОНО": 1238,
      "ЛЕНИЯ": 1239,
      "ВОЕ": 1240,
      "ВОК": 1241,
      "AM": 1242,
      "ЧАСТЬ": 1243,
      "ТЕЛЬНОЙ": 1244,
      "КОНТЕЙ": 1245,
      "ДОЛЖ": 1246,
      "АЛЮ": 1247,
      "ОБЩЕСТВО": 1248,
      "AP": 1249,
      "МИНИСТЕР": 1250,
      "ЖИД": 1251,
      "ИНФОРМА": 1252,
      "УСЛОВИЯ": 1253,
      "ЗОН": 1254,
      "ЦИД": 1255,
      "TI": 1256,
      "АЛЬ": 1257,
      "МЕДИЦИНСКОЙ": 1258,
      "РНАЯ": 1259,
      "ЗАП": 1260,
      "АВ": 1261,
      "ЭТИКЕ": 1262,
      "БОЛЕЕ": 1263,
      "ЛЬНИК": 1264,
      "ВОМ": 1265,
      "КЛИНИЧЕСКИЙ": 1266,
      "ТОРОВ": 1267,
      "БАНК": 1268,
      "ДИАГНОСТИ": 1269,
      "НАУЧ": 1270,
      "ЧЕСКАЯ": 1271,
      "МОСТЬ": 1272,
      "СТАНЦИЯ": 1273,
      "ДЛИ": 1274,
      "НСКИЙ": 1275,
      "ПЛОЩА": 1276,
      "ПРОТИ": 1277,
      "ЯЩИ": 1278,
      "ТАМ": 1279,
      "БАРАНО": 1280,
      "РЕГУЛИ": 1281,
      "ДЕЛЬ": 1282,
      "СТЕКЛО": 1283,
      "ИМЕНИ": 1284,
      "АКЦИОНЕРНОЕ": 1285,
      "ЗАПА": 1286,
      "ЖУ": 1287,
      "ОТКРЫТОЕ": 1288,
      "ИНСТРУ": 1289,
      "КАТ": 1290,
      "КОМА": 1291,
      "ДЕЛ": 1292,
      "OB": 1293,
      "НИКОВ": 1294,
      "ГОРИ": 1295,
      "ВИТЕБСК": 1296,
      "МЫШЛЕН": 1297,
      "МОСТИ": 1298,
      "ПРОДУКТ": 1299,
      "UN": 1300,
      "ШО": 1301,
      "ПРОМЫШЛЕН": 1302,
      "БУХ": 1303,
      "КОЛЬЦО": 1304,
      "РЕСПУБЛИКАНСКОЕ": 1305,
      "МЕТО": 1306,
      "РОВА": 1307,
      "СТАЛЬ": 1308,
      "EC": 1309,
      "РЕМ": 1310,
      "МЕД": 1311,
      "КП": 1312,
      "ЮТСЯ": 1313,
      "ОТЧЕТ": 1314,
      "КОСТ": 1315,
      "ШИРИНА": 1316,
      "ЧУ": 1317,
      "ЧЕЙ": 1318,
      "МОЗЫРСКИЙ": 1319,
      "ТЭ": 1320,
      "РМА": 1321,
      "ОКАЗАНИЕ": 1322,
      "СОБ": 1323,
      "КТОР": 1324,
      "РЕЗИ": 1325,
      "ТН": 1326,
      "ПОЧ": 1327,
      "АЛЮМИ": 1328,
      "ВЫМ": 1329,
      "МИНСКА": 1330,
      "ЛЕНТА": 1331,
      "РНОЙ": 1332,
      "ДОРОЖ": 1333,
      "ЭКСПЛУ": 1334,
      "ШЕН": 1335,
      "ДОР": 1336,
      "ЭКСПЛУА": 1337,
      "ФИЛЬТР": 1338,
      "ВСКАЯ": 1339,
      "EX": 1340,
      "НИМ": 1341,
      "ФИНАНСОВОЙ": 1342,
      "ВЫПОЛНЕНИЯ": 1343,
      "EM": 1344,
      "ГНА": 1345,
      "ПРЕДЛАГА": 1346,
      "КАПИТАЛЬНЫЙ": 1347,
      "ТИЯ": 1348,
      "ЦИОНА": 1349,
      "ЖИН": 1350,
      "ЛИЗИН": 1351,
      "ТП": 1352,
      "ГРУЗКИ": 1353,
      "РГО": 1354,
      "ТИП": 1355,
      "ИЗДЕЛИЙ": 1356,
      "ГАЛ": 1357,
      "ТОВАРА": 1358,
      "ТАМИ": 1359,
      "ТЫЙ": 1360,
      "СРЕДСТВ": 1361,
      "ДАТ": 1362,
      "НОВЫЙ": 1363,
      "НЬ": 1364,
      "ПОМЕЩЕНИЙ": 1365,
      "ННЫЕ": 1366,
      "ПРОФИ": 1367,
      "КЛАПАН": 1368,
      "КУКУ": 1369,
      "ПЕЧАТЬ": 1370,
      "СНАБЖЕНИЯ": 1371,
      "ЦИОННЫЙ": 1372,
      "ОБЯЗАТЕЛЬ": 1373,
      "ОБРАБОТ": 1374,
      "РЕГИ": 1375,
      "ГР": 1376,
      "НАЛАДО": 1377,
      "КУКУРУ": 1378,
      "ДОПУСКА": 1379,
      "ЛЫХ": 1380,
      "ЧЕРНЫЙ": 1381,
      "ПРАК": 1382,
      "ПРОГРАММ": 1383,
      "МОЩ": 1384,
      "ЧЕНЬ": 1385,
      "РИН": 1386,
      "ИСПОЛЬЗО": 1387,
      "ТЕЛЕМ": 1388,
      "ТРАНСФОРМА": 1389,
      "СТАНЦИИ": 1390,
      "ВНЫЙ": 1391,
      "SK": 1392,
      "ОСУЩЕ": 1393,
      "ФЕР": 1394,
      "ПРОЕКТНОЙ": 1395,
      "ЧЕРТЕ": 1396,
      "ОПРЕДЕЛЕНИЯ": 1397,
      "ОТДЕЛЕНИЕ": 1398,
      "ЛЁ": 1399,
      "ВНЕ": 1400,
      "ОКОН": 1401,
      "ТНЫЕ": 1402,
      "ЖИМ": 1403,
      "БУМАГА": 1404,
      "НАУЧНО": 1405,
      "ОСУЩЕСТВ": 1406,
      "МИНИСТЕРСТВА": 1407,
      "ДОСТ": 1408,
      "ОКТ": 1409,
      "КОСТЬ": 1410,
      "ПЛЕНКА": 1411,
      "ЦИОННАЯ": 1412,
      "ОЧИСТ": 1413,
      "АЗ": 1414,
      "КОМПО": 1415,
      "ОТЧЕТНОСТИ": 1416,
      "ОКТЯБ": 1417,
      "ЛЛЕ": 1418,
      "МАТОЛОГИЧЕ": 1419,
      "РГИ": 1420,
      "СИГНА": 1421,
      "ВИТЕБСКИЙ": 1422,
      "РЕМОНТА": 1423,
      "НСКОГО": 1424,
      "ЧНОЕ": 1425,
      "АНАЛОГИ": 1426,
      "БЕЛЫЙ": 1427,
      "ГЛО": 1428,
      "БИО": 1429,
      "РАЗМЕР": 1430,
      "RAL": 1431,
      "ФИЦИ": 1432,
      "БУХГАЛ": 1433,
      "СОЛИ": 1434,
      "АВТОМОБИЛЬ": 1435,
      "СЧЕТ": 1436,
      "БОЙ": 1437,
      "УЛЬ": 1438,
      "РЕАГЕНТЫ": 1439,
      "РАЗО": 1440,
      "ПРОВЕДЕНИЯ": 1441,
      "КЛЮЧЕНИЯ": 1442,
      "БЕЛОРУССКОЙ": 1443,
      "ЖДЕНИЯ": 1444,
      "КОРПУС": 1445,
      "КОД": 1446,
      "ЖЕНИЕ": 1447,
      "ГОФ": 1448,
      "ЖДА": 1449,
      "ПОЗ": 1450,
      "ВНУТРЕННИХ": 1451,
      "ТК": 1452,
      "ЗАСТРОЙ": 1453,
      "РОВКИ": 1454,
      "МАЙ": 1455,
      "ЧЕСКИЙ": 1456,
      "БЛ": 1457,
      "КМ": 1458,
      "СТРОИТЕЛЬНЫЙ": 1459,
      "ЖЕЛЕЗНОЙ": 1460,
      "ТОЙ": 1461,
      "ПОТРЕ": 1462,
      "СОВЕТСКАЯ": 1463,
      "НАЛИ": 1464,
      "SD": 1465,
      "ЕНТИ": 1466,
      "КОМПЛЕКТУ": 1467,
      "ИНТЕР": 1468,
      "ДВЕР": 1469,
      "УСИЛИ": 1470,
      "РОВАННАЯ": 1471,
      "ПОМЕЩЕНИЯ": 1472,
      "UL": 1473,
      "РЕЙ": 1474,
      "СВИ": 1475,
      "РОВАННЫЙ": 1476,
      "СМЕТ": 1477,
      "НЕГО": 1478,
      "КОВО": 1479,
      "AG": 1480,
      "МАН": 1481,
      "РЕА": 1482,
      "СТОЛ": 1483,
      "ЦК": 1484,
      "ПОДЪЕМ": 1485,
      "ПРАКТИЧЕСКИЙ": 1486,
      "ДЕЗИН": 1487,
      "БУХГАЛТЕР": 1488,
      "КХ": 1489,
      "ДОВОЙ": 1490,
      "ВАНИЙ": 1491,
      "РУРГИ": 1492,
      "ОБОЛО": 1493,
      "ТЕРА": 1494,
      "СУЛЬ": 1495,
      "ДОПОЛНИТЕЛЬ": 1496,
      "ФАЙ": 1497,
      "ЦИОННОЙ": 1498,
      "ИЗЫСКАТЕЛЬ": 1499,
      "МУФТА": 1500,
      "SP": 1501,
      "МОМ": 1502,
      "ДКА": 1503,
      "ФИЛИАЛА": 1504,
      "АТ": 1505,
      "КЦИИ": 1506,
      "ЭПИДЕМИ": 1507,
      "ВОЛКОВЫС": 1508,
      "КУЛЬ": 1509,
      "КОНДИ": 1510,
      "ВАРИ": 1511,
      "ДЖ": 1512,
      "РУЛО": 1513,
      "ЮЩЕЕ": 1514,
      "ГАРАН": 1515,
      "II": 1516,
      "МОНИ": 1517,
      "ЦКОГО": 1518,
      "ДВИЖ": 1519,
      "ВЕНТИЛЯ": 1520,
      "КВА": 1521,
      "ВЛА": 1522,
      "ТОНА": 1523,
      "ФЛАН": 1524,
      "UR": 1525,
      "КОТ": 1526,
      "АНАЛИЗАТОРА": 1527,
      "СТОИ": 1528,
      "ПРОВЕДЕНИЮ": 1529,
      "МИНА": 1530,
      "СТАЛИ": 1531,
      "ВЫКЛЮЧА": 1532,
      "ДРЕ": 1533,
      "НАПРЯ": 1534,
      "УСТРОЙСТВУ": 1535,
      "ШЕНИЯ": 1536,
      "ФЛА": 1537,
      "ПОВЕРХ": 1538,
      "ХИРУРГИ": 1539,
      "ЩЕНИЯ": 1540,
      "ОРИЕНТИ": 1541,
      "МЕТИ": 1542,
      "ЖЕЙ": 1543,
      "АППАРАТ": 1544,
      "ПОРО": 1545,
      "ПЕРЕЧЕНЬ": 1546,
      "ГАТЕЛЬ": 1547,
      "КРИ": 1548,
      "НАИМЕНОВАНИЕ": 1549,
      "ВСКОГО": 1550,
      "ОПЕРА": 1551,
      "ТОВАР": 1552,
      "ЭПИДЕМИОЛОГИИ": 1553,
      "ЧИКОМ": 1554,
      "БЕТОН": 1555,
      "СЛУЦКИЙ": 1556,
      "КАМЕ": 1557,
      "МОНО": 1558,
      "МУЛЬ": 1559,
      "ЧАСТ": 1560,
      "ОТО": 1561,
      "ПТИЦЕ": 1562,
      "ШУ": 1563,
      "НГ": 1564,
      "ПОЛИЭТИ": 1565,
      "ТНОЙ": 1566,
      "ОБРАЗОВАНИЯ": 1567,
      "ЭКСТРА": 1568,
      "ДЕТСКАЯ": 1569,
      "ВИЧСКИЙ": 1570,
      "ЮЩЕГО": 1571,
      "НПЗ": 1572,
      "ОХЛА": 1573,
      "АЛЮМИНИЕ": 1574,
      "ГИДРА": 1575,
      "ЕНТОВ": 1576,
      "ДЕНТА": 1577,
      "СТВЕННЫХ": 1578,
      "СЛОЙ": 1579,
      "ЕННЫЙ": 1580,
      "ГЕНЕРА": 1581,
      "ТОЛЩИ": 1582,
      "LO": 1583,
      "БЫТЬ": 1584,
      "КРАСКА": 1585,
      "ОСНОВЕ": 1586,
      "АРЕН": 1587,
      "СПИ": 1588,
      "НИЦА": 1589,
      "МАГ": 1590,
      "ДЗЕР": 1591,
      "ИССЛЕДО": 1592,
      "МЕХАНИЧЕ": 1593,
      "ДЕРЕ": 1594,
      "ТЕХНОЛОГИЧЕ": 1595,
      "ДЗЕРЖИН": 1596,
      "ВОЗМОЖ": 1597,
      "КУКУРУЗЫ": 1598,
      "ЮЩИМ": 1599,
      "ОСТРО": 1600,
      "СМЕТНОЙ": 1601,
      "СОЛЬ": 1602,
      "ХОДА": 1603,
      "ЛОВА": 1604,
      "КОНТРОЛЯ": 1605,
      "ЗЕМ": 1606,
      "ПАСНО": 1607,
      "СНЫХ": 1608,
      "БОРИ": 1609,
      "СТЫ": 1610,
      "БЕЛЭНЕРГО": 1611,
      "МАРШРУТУ": 1612,
      "АГРОКОМБИНАТ": 1613,
      "ГАЙ": 1614,
      "ПРОЦЕДУ": 1615,
      "ИНТЕГРА": 1616,
      "СУБПОДРЯДНОЙ": 1617,
      "SH": 1618,
      "FOB": 1619,
      "ЗАЯ": 1620,
      "ED": 1621,
      "ХРАНЕНИЯ": 1622,
      "КАРТРИ": 1623,
      "ВИДУ": 1624,
      "НИКО": 1625,
      "КОМПРЕ": 1626,
      "RI": 1627,
      "БЕЗО": 1628,
      "AB": 1629,
      "ДНЕЙ": 1630,
      "МАССО": 1631,
      "КТА": 1632,
      "ДЕК": 1633,
      "КРОВ": 1634,
      "ПЫТА": 1635,
      "ОБРАЗ": 1636,
      "ЧАСТЕЙ": 1637,
      "ДНЫЙ": 1638,
      "НПЦ": 1639,
      "СВЕТЛО": 1640,
      "ПЭ": 1641,
      "ТЕЛЕКОМ": 1642,
      "ЦИОННОГО": 1643,
      "ДАВЛЕНИЯ": 1644,
      "КАХ": 1645,
      "УНИВЕРСА": 1646,
      "РОВАНИЕ": 1647,
      "ВСЕ": 1648,
      "КОЛБА": 1649,
      "НЕФТЕ": 1650,
      "ОРША": 1651,
      "КИСЛОТ": 1652,
      "ВИЧСКАЯ": 1653,
      "КАЧЕ": 1654,
      "MO": 1655,
      "АУДИТОР": 1656,
      "ПОЛКОМА": 1657,
      "СПЕЦИАЛИ": 1658,
      "ИНДИВИДУ": 1659,
      "ССЕ": 1660,
      "ПТИЦЕФАБРИКА": 1661,
      "НЕЕ": 1662,
      "ОКТЯБРЬ": 1663,
      "БУХГАЛТЕРСКОЙ": 1664,
      "БЛА": 1665,
      "МИНСКЕ": 1666,
      "ЭЛЕКТРОД": 1667,
      "ПОКРЫТИЯ": 1668,
      "ТУРЫ": 1669,
      "ТРУБО": 1670,
      "РАСХОДНЫЕ": 1671,
      "ЭТА": 1672,
      "ВКУСА": 1673,
      "СИТЕЛЬ": 1674,
      "ПОСТАВКА": 1675,
      "РАЗРАБОТКА": 1676,
      "ТОГО": 1677,
      "ВАЮЩИЙ": 1678,
      "ПОЛИМЕР": 1679,
      "ИЗЫСКАТЕЛЬСКИХ": 1680,
      "УМ": 1681,
      "ЦИОННЫХ": 1682,
      "БЕЛТЕЛЕКОМ": 1683,
      "ПРЕДЛОЖ": 1684,
      "КЛАСС": 1685,
      "ПРЕДПРИЯТИЯ": 1686,
      "ЗАКУПКИ": 1687,
      "ОПО": 1688,
      "МАШИНА": 1689,
      "УСТРОЙСТВА": 1690,
      "ФИР": 1691,
      "РАСПРЕ": 1692,
      "ЦЕП": 1693,
      "НАКО": 1694,
      "ДЕЙСТВУЮЩЕМУ": 1695,
      "ВОС": 1696,
      "ВАКУ": 1697,
      "ПОДШИПНИК": 1698,
      "ПРИЛОЖЕНИЮ": 1699,
      "ЦЕХА": 1700,
      "СПОЛКОМА": 1701,
      "ПОДО": 1702,
      "КОВАН": 1703,
      "ПОВЕР": 1704,
      "ВЕЩЕСТВУ": 1705,
      "КОЛЕ": 1706,
      "ПРОКЛАД": 1707,
      "ЗАМЕ": 1708,
      "СТРОИТЕЛЬНЫХ": 1709,
      "ФОН": 1710,
      "БЛЕ": 1711,
      "БЕЛАВТО": 1712,
      "ВАКЦИ": 1713,
      "ЛАБОРА": 1714,
      "ФУНКЦИ": 1715,
      "СТАНДАР": 1716,
      "MIN": 1717,
      "ИСПЫТА": 1718,
      "ИНДИВИДУА": 1719,
      "ВАЛ": 1720,
      "НЕФТЬ": 1721,
      "ЦИЛИН": 1722,
      "СЕТЬ": 1723,
      "ПОЛИПРОПИ": 1724,
      "ENT": 1725,
      "СЛЕДУ": 1726,
      "БЕЛАВТОМАЗ": 1727,
      "СОРТ": 1728,
      "КУПА": 1729,
      "БРО": 1730,
      "УТЕ": 1731,
      "БЕЛЬ": 1732,
      "ЛИД": 1733,
      "СТВОВАТЬ": 1734,
      "НИМА": 1735,
      "КЕРА": 1736,
      "МЕНТЫ": 1737,
      "ИНТЕГРАЛ": 1738,
      "ОКИ": 1739,
      "ПРЕЗИ": 1740,
      "НОК": 1741,
      "КОСТЮ": 1742,
      "ШТА": 1743,
      "ТС": 1744,
      "УГО": 1745,
      "MB": 1746,
      "ЛИФ": 1747,
      "ЦИЮ": 1748,
      "МАЛЬ": 1749,
      "ПРИЛАГА": 1750,
      "VO": 1751,
      "КОМИ": 1752,
      "ФАСА": 1753,
      "МЕДИЦИНСКИЙ": 1754,
      "ННЫХ": 1755,
      "ПРЕДНАЗНА": 1756,
      "ТЕТ": 1757,
      "ХИМ": 1758,
      "СБО": 1759,
      "ГРО": 1760,
      "НАПРА": 1761,
      "ОДНОРАЗО": 1762,
      "ТРЕХ": 1763,
      "ВЛЕНИЮ": 1764,
      "БАЛ": 1765,
      "КОНКУР": 1766,
      "АУДИТА": 1767,
      "ЕМАЯ": 1768,
      "ЕВРО": 1769,
      "КРУГ": 1770,
      "ФОРМ": 1771,
      "БОРИСОВ": 1772,
      "ПЕРЕЦ": 1773,
      "ЖО": 1774,
      "ПРЕПАРАТ": 1775,
      "УСТАНОВ": 1776,
      "ОТДЕ": 1777,
      "ВАКЦИНА": 1778,
      "ВИЧА": 1779,
      "ХОДОВ": 1780,
      "КОВОЙ": 1781,
      "ПОМ": 1782,
      "ДЕЛАМИ": 1783,
      "АЭ": 1784,
      "ПРУ": 1785,
      "ДВЕ": 1786,
      "ПРЕОБРАЗО": 1787,
      "ПЛОТ": 1788,
      "ЩИКА": 1789,
      "РНПЦ": 1790,
      "ИВА": 1791,
      "ДЕЛИТЕЛЬ": 1792,
      "ДЕТА": 1793,
      "ТОПЛИ": 1794,
      "МЕДИЦИНСКАЯ": 1795,
      "МНОГОКВАРТИРНЫЙ": 1796,
      "СОСТАВЕ": 1797,
      "ПОЛИЭТИЛЕ": 1798,
      "ХЕ": 1799,
      "ДИС": 1800,
      "КОНСТРУКЦИЙ": 1801,
      "ЛИНИИ": 1802,
      "НАДЗО": 1803,
      "ОБЪЕКТ": 1804,
      "САЖИ": 1805,
      "КАМ": 1806,
      "ЛИСТО": 1807,
      "СОЕДИН": 1808,
      "БЕЗОПАСНО": 1809,
      "ДЕЙСТВИ": 1810,
      "ОБРАБОТКИ": 1811,
      "ЖКХ": 1812,
      "КРАН": 1813,
      "РУКА": 1814,
      "ННАЯ": 1815,
      "РАСПОЛОЖЕННОГО": 1816,
      "КРОВИ": 1817,
      "UM": 1818,
      "ИММУ": 1819,
      "ПК": 1820,
      "ВОДОВ": 1821,
      "КНО": 1822,
      "ПРЕЗИДЕНТА": 1823,
      "ПНЕВ": 1824,
      "МОДУЛЬ": 1825,
      "РЕГА": 1826,
      "НЕРЖА": 1827,
      "УЧАСТКА": 1828,
      "СТРЕ": 1829,
      "ВТУЛ": 1830,
      "ИЗМЕРЕ": 1831,
      "АВТОМАТИЧЕСКОГО": 1832,
      "DI": 1833,
      "НЕРЖАВЕ": 1834,
      "РС": 1835,
      "ПРОИЗВОДСТВЕННОЕ": 1836,
      "ПЕРЕГОВО": 1837,
      "ЖЕЛ": 1838,
      "КОРОБ": 1839,
      "КОНСЕР": 1840,
      "УПАКОВКИ": 1841,
      "СВЕТИ": 1842,
      "БАК": 1843,
      "СТОРОН": 1844,
      "ПЕЧАТИ": 1845,
      "ГОДА": 1846,
      "СНАБКОМПЛЕКТ": 1847,
      "ПУСКОНАЛАДО": 1848,
      "СИЛО": 1849,
      "ЕМЫХ": 1850,
      "ВСКИЙ": 1851,
      "БЕЛЭНЕРГОСНАБКОМПЛЕКТ": 1852,
      "БМЗ": 1853,
      "РАБОЧИ": 1854,
      "РЕГУЛЯТОР": 1855,
      "АРОМАТА": 1856,
      "НАЦИОНА": 1857,
      "БМК": 1858,
      "ЖИЛИЩНОЕ": 1859,
      "ДИОД": 1860,
      "УПЛОТН": 1861,
      "ЗАМОРО": 1862,
      "БОЛ": 1863,
      "ТОВОЙ": 1864,
      "ТОРОМ": 1865,
      "КОМПЛЕКТА": 1866,
      "OP": 1867,
      "ТИВНОЙ": 1868,
      "АДМИНИ": 1869,
      "ОЦИН": 1870,
      "ЦИОННЫЕ": 1871,
      "ГОДОВОЙ": 1872,
      "ПРОТИВО": 1873,
      "CE": 1874,
      "УСИЛИТЕЛЬ": 1875,
      "ГИДРАВ": 1876,
      "ПОЛНО": 1877,
      "БЕС": 1878,
      "КЛЕЙ": 1879,
      "СКИМИ": 1880,
      "DN": 1881,
      "ИСПОЛН": 1882,
      "АГРЕГА": 1883,
      "НИЖ": 1884,
      "ТЕК": 1885,
      "МЕТОДОМ": 1886,
      "ПРОВЕДЕНИЕ": 1887,
      "ОНИ": 1888,
      "ЗАКУПКУ": 1889,
      "ВРА": 1890,
      "GE": 1891,
      "ТИКИ": 1892,
      "ХИМИЧЕ": 1893,
      "БОЛЬ": 1894,
      "ШТУ": 1895,
      "СНОЙ": 1896,
      "РАСШИ": 1897,
      "РОВКА": 1898,
      "ГОРЕ": 1899,
      "ГНЕ": 1900,
      "КОРМО": 1901,
      "ВЗ": 1902,
      "ТЕХНОЛОГИИ": 1903,
      "МАКСИ": 1904,
      "ПАРО": 1905,
      "АДМИНИСТРА": 1906,
      "ЛЕКАР": 1907,
      "БЛОКА": 1908,
      "ЦИА": 1909,
      "ION": 1910,
      "ОТВЕР": 1911,
      "ФИКАЦИИ": 1912,
      "ДОСТУПА": 1913,
      "НЕЗА": 1914,
      "ТИКА": 1915,
      "ГРУН": 1916,
      "РУБ": 1917,
      "ОБЪЕМ": 1918,
      "ЛЕНИНА": 1919,
      "ПОЛИПРОПИЛЕ": 1920,
      "ДАЧИ": 1921,
      "ХЛОРИ": 1922,
      "ПЕРВО": 1923,
      "ВЛЕНИЕМ": 1924,
      "РЕАГЕНТОВ": 1925,
      "ХОЛОДИ": 1926,
      "SM": 1927,
      "АККУ": 1928,
      "ПЕРИОД": 1929,
      "БАН": 1930,
      "РИТЕЛЬ": 1931,
      "WIN": 1932,
      "ТРАНСФОРМАТОР": 1933,
      "ГАРАНТИ": 1934,
      "SE": 1935,
      "АККУМУ": 1936,
      "ОНКО": 1937,
      "МЕСТ": 1938,
      "ВИДЕО": 1939,
      "AI": 1940,
      "ХОЗЯЙСТВО": 1941,
      "ЭНЕРГЕ": 1942,
      "ГАР": 1943,
      "ЗАСТРОЙКИ": 1944,
      "АМ": 1945,
      "ОРУЖ": 1946,
      "ЦВЕТА": 1947,
      "СВЕТЛОГОР": 1948,
      "КОВАЯ": 1949,
      "ВСТРО": 1950,
      "МИР": 1951,
      "ЦЕВ": 1952,
      "ЬЕ": 1953,
      "ЛИО": 1954,
      "ИММУНО": 1955,
      "ТАКЖЕ": 1956,
      "ЛЕГ": 1957,
      "УС": 1958,
      "НАФТА": 1959,
      "КРУП": 1960,
      "ПРЕСС": 1961,
      "OM": 1962,
      "СТОМАТОЛОГИЧЕ": 1963,
      "АВТОМАТИЧЕСКИЙ": 1964,
      "СТОИМОСТЬ": 1965,
      "НАНЕС": 1966,
      "СООРУЖ": 1967,
      "КЛЮЧ": 1968,
      "ГЛУБО": 1969,
      "ВНОГО": 1970,
      "ЖИЛЫХ": 1971,
      "ИЗДЕЛИЯ": 1972,
      "ВГ": 1973,
      "НАФТАН": 1974,
      "МИНЕРА": 1975,
      "ДАТЕЛЬ": 1976,
      "КОНДИЦИ": 1977,
      "ПОВ": 1978,
      "ГИДРАВЛИЧЕ": 1979,
      "ДНАЯ": 1980,
      "КАТЕ": 1981,
      "ТЕХНИЧЕСКИМ": 1982,
      "ПЛИТА": 1983,
      "СМЕСЬ": 1984,
      "ГРАН": 1985,
      "ЭКСПЛУАТА": 1986,
      "ОКИСЛИ": 1987,
      "ЬЯ": 1988,
      "НАЛИЧИ": 1989,
      "ЧЕСКОГО": 1990,
      "СВЕТОДИОД": 1991,
      "ПОМО": 1992,
      "АМИ": 1993,
      "РЕЧИ": 1994,
      "ТЕХНИКИ": 1995,
      "BR": 1996,
      "БЕЛОРУСНЕФТЬ": 1997,
      "МАШИН": 1998,
      "ЛЬНЫМ": 1999,
      "УРОВ": 2000,
      "ПРОЗ": 2001,
      "НОВЫЕ": 2002,
      "ЗАПЧАСТИ": 2003,
      "МИНСКЭНЕРГО": 2004,
      "ПЕРВОМАЙ": 2005,
      "АНТИОКИСЛИ": 2006,
      "INT": 2007,
      "БУМАЖ": 2008,
      "АЛЬФА": 2009,
      "ЛИЦЕН": 2010,
      "КРОВЛИ": 2011,
      "РНОГО": 2012,
      "КОРИ": 2013,
      "ЛОК": 2014,
      "БОРО": 2015,
      "КОНТЕЙНЕ": 2016,
      "ВЫКЛЮЧАТЕЛЬ": 2017,
      "ДР": 2018,
      "СТИТЕЛЬ": 2019,
      "ДОПУСКАЕТСЯ": 2020,
      "ПРОВОДА": 2021,
      "ВИТЬ": 2022,
      "ЛИЦЕНЗИ": 2023,
      "ВИТА": 2024,
      "РАДИО": 2025,
      "ЪЁ": 2026,
      "ТЕТА": 2027,
      "РЕЗЕР": 2028,
      "ТОРГО": 2029,
      "ПРЕДНАЗНАЧЕН": 2030,
      "КОЕ": 2031,
      "НОВА": 2032,
      "МЕТАЛЛО": 2033,
      "СОЛИГОР": 2034,
      "ПОРТА": 2035,
      "МОЛОЧНЫЙ": 2036,
      "BO": 2037,
      "LI": 2038,
      "ЕМЫЙ": 2039,
      "ПРИН": 2040,
      "УКС": 2041,
      "ВИА": 2042,
      "ПАССАЖИ": 2043,
      "РОЛИ": 2044,
      "СУХО": 2045,
      "ТНЫМ": 2046,
      "МАТРИ": 2047,
      "БЕР": 2048,
      "ОБСЛЕДО": 2049,
      "ПОДГОТОВ": 2050,
      "РЕМЕН": 2051,
      "ЭНДО": 2052,
      "ЗАМОРОЖЕН": 2053,
      "ДЕРЖИ": 2054,
      "ТНО": 2055,
      "ДОСТАВ": 2056,
      "ШТУК": 2057,
      "ЛКИ": 2058,
      "СРЕДСТВА": 2059,
      "ИСПОЛНИТЕЛЬ": 2060,
      "PS": 2061,
      "БЕЛАРУ": 2062,
      "БРЕСТСКИЙ": 2063,
      "КОВИЧИ": 2064,
      "КАЛИЙ": 2065,
      "НЕЦ": 2066,
      "РЕЗЬ": 2067,
      "ВИСИ": 2068,
      "КОМПЬЮ": 2069,
      "ТЕХНИЧЕСКАЯ": 2070,
      "ПЛЕНИЯ": 2071,
      "ПАРТА": 2072,
      "ЛЕНИЕ": 2073,
      "КЛАПА": 2074,
      "СОСТОЯ": 2075,
      "ИСТО": 2076,
      "КАТАЛОГ": 2077,
      "ЖИЛ": 2078,
      "DD": 2079,
      "ЧИН": 2080,
      "ДИНИТЕЛЬ": 2081,
      "ТЕХНИЧЕСКОЙ": 2082,
      "KE": 2083,
      "ДВИГА": 2084,
      "СТОРО": 2085,
      "РНЫХ": 2086,
      "ФРА": 2087,
      "РАБОТА": 2088,
      "ПРОЕКТНЫХ": 2089,
      "НАТУРА": 2090,
      "ЕД": 2091,
      "ТЫС": 2092,
      "СКУ": 2093,
      "БЛОКОВ": 2094,
      "СОГЛАСО": 2095,
      "ОГРА": 2096,
      "ТОП": 2097,
      "ВС": 2098,
      "ОДЕ": 2099,
      "ГОЛОВ": 2100,
      "ПОМОЩИ": 2101,
      "СМОРГО": 2102,
      "РЮ": 2103,
      "НОВОЙ": 2104,
      "СОМ": 2105,
      "ФАЛЬ": 2106,
      "ФЛАНЦЕ": 2107,
      "СРЕ": 2108,
      "ПРОЗРА": 2109,
      "ПУЛЬ": 2110,
      "ГОСУДАРСТВЕННЫЙ": 2111,
      "БЛОКИ": 2112,
      "ХЛЕБОПРОДУКТОВ": 2113,
      "ЗДАНИИ": 2114,
      "БЕЗОПАСНОСТИ": 2115,
      "ИНЪЕ": 2116,
      "ДЕПАРТА": 2117,
      "ПЕРЧА": 2118,
      "СЕРИ": 2119,
      "ДОГОВО": 2120,
      "ЖКА": 2121,
      "МОР": 2122,
      "ННОГО": 2123,
      "ФУНКЦИОНА": 2124,
      "ДКИ": 2125,
      "СВОЙ": 2126,
      "ВОДОМ": 2127,
      "ТАКТ": 2128,
      "ВКЛЮЧА": 2129,
      "ХОЛДИНГ": 2130,
      "ДИСПАН": 2131,
      "ВНЕШ": 2132,
      "СПЕЦИАЛИЗИРОВАН": 2133,
      "БЛАГО": 2134,
      "СЕЛЕ": 2135,
      "СИГНАЛИЗАЦИИ": 2136,
      "СБОР": 2137,
      "USB": 2138,
      "СЕЛЬСКО": 2139,
      "ДАТЧИК": 2140,
      "ГРУЗОПОДЪЕМ": 2141,
      "ЭКСТРАКТ": 2142,
      "BA": 2143,
      "ОБЕСПЕЧЕНИЯ": 2144,
      "НЕЧ": 2145,
      "МТЗ": 2146,
      "УНИВЕРСИ": 2147,
      "НОВЫХ": 2148,
      "СЕЛЬСКОХОЗЯЙ": 2149,
      "ОБЛАСТНОЕ": 2150,
      "УЧЕТА": 2151,
      "ОКРА": 2152,
      "РЕГИСТРА": 2153,
      "AND": 2154,
      "ЭНЕРГИ": 2155,
      "РАСПРЕДЕЛИТЕЛЬ": 2156,
      "ДИСПАНСЕР": 2157,
      "НАТРИЯ": 2158,
      "ВОЗДУХА": 2159,
      "ПЛАСТ": 2160,
      "СТАБИ": 2161,
      "КАРТОНА": 2162,
      "ПОЧТА": 2163,
      "НАЗНАЧЕНИЯ": 2164,
      "ТРУБЫ": 2165,
      "ПРОМЫШЛЕННЫЙ": 2166,
      "ФРУ": 2167,
      "БРОЙ": 2168,
      "ДИНА": 2169,
      "ЛИНЕЙ": 2170,
      "СТРОЗА": 2171,
      "НОМИНА": 2172,
      "ЗОЛ": 2173,
      "ВОЗДУШ": 2174,
      "ГИГИ": 2175,
      "КОВЫЙ": 2176,
      "АРОМАТИЗА": 2177,
      "ЛИЦО": 2178,
      "ЛАК": 2179,
      "ЩЕГО": 2180,
      "ЧЕСКИХ": 2181,
      "БРОЙЛЕ": 2182,
      "ВНОЙ": 2183,
      "ТИН": 2184,
      "ПЛАСТИНА": 2185,
      "ЭТИКЕТКА": 2186,
      "МАГНИ": 2187,
      "ХРАН": 2188,
      "TH": 2189,
      "МБ": 2190,
      "БЕЛАЯ": 2191,
      "СВАР": 2192,
      "ЛЕМ": 2193,
      "ПОКРЫТИЕМ": 2194,
      "ГАЗПРОМ": 2195,
      "СТЯ": 2196,
      "ДЕКСТРОЗА": 2197,
      "ВОССТАНО": 2198,
      "ПОЖАРНОЙ": 2199,
      "ОРИЕНТИРОВО": 2200,
      "ЗАКАЗЧИКА": 2201,
      "ЧУГУ": 2202,
      "SY": 2203,
      "ННОЙ": 2204,
      "УПЛОТНИТЕЛЬ": 2205,
      "ЧЕСКИЕ": 2206,
      "ЮЩИМИ": 2207,
      "ЭЛЕКТРОДВИ": 2208,
      "КЗ": 2209,
      "BL": 2210,
      "ТЕСТ": 2211,
      "ОЦИНКОВАН": 2212,
      "РЕДУ": 2213,
      "МАС": 2214,
      "ВНАЯ": 2215,
      "БЕЛПОЧТА": 2216,
      "ГРИ": 2217,
      "УЧЕТОМ": 2218,
      "ВМ": 2219,
      "ЗАПАД": 2220,
      "ТОНН": 2221,
      "ЖЛО": 2222,
      "ОБЩЕЖИ": 2223,
      "ПОЗИ": 2224,
      "МОГИЛЕВСКИЙ": 2225,
      "НОСТЕЙ": 2226,
      "АВТОМОБИЛЯ": 2227,
      "ПРИМЕНЕНИЯ": 2228,
      "СЕК": 2229,
      "ГОМ": 2230,
      "ВОЛКОВЫССКИЙ": 2231,
      "ЩЕН": 2232,
      "МУЛЬТИ": 2233,
      "СБОРЕ": 2234,
      "АДМИНИСТРАТИВ": 2235,
      "КОМИТЕТА": 2236,
      "ЭФ": 2237,
      "НЕНТ": 2238,
      "ВЫПОЛ": 2239,
      "ПОДРЯДЧИКА": 2240,
      "ТОКА": 2241,
      "ПРЕПАРАТЫ": 2242,
      "ФОС": 2243,
      "ЛЮД": 2244,
      "НЕФТЕПРОДУКТ": 2245,
      "АЛЕ": 2246,
      "ДЛИНА": 2247,
      "ОСТА": 2248,
      "КОНА": 2249,
      "МАКСИМА": 2250,
      "МЕНТЕ": 2251,
      "ШАРО": 2252,
      "МОЛОДЕ": 2253,
      "ГОРЯ": 2254,
      "ЗАКЛЮЧЕНИЯ": 2255,
      "СЕН": 2256,
      "НОВОПОЛО": 2257,
      "БАРИ": 2258,
      "ITE": 2259,
      "ТЕПЛОВОЙ": 2260,
      "ДОЛЖЕН": 2261,
      "ОБЕСПЕЧИ": 2262,
      "ШВ": 2263,
      "ЭНЕРГИИ": 2264,
      "ГОС": 2265,
      "ЕМОГО": 2266,
      "ПОВОРО": 2267,
      "VI": 2268,
      "ЖЛОБИН": 2269,
      "МОНТАЖУ": 2270,
      "PE": 2271,
      "РЕГУЛИРУ": 2272,
      "ПЕРЧАТКИ": 2273,
      "ИНФЕК": 2274,
      "ФАСОВАН": 2275,
      "ПИСЬ": 2276,
      "FT": 2277,
      "ВКЛЮ": 2278,
      "ЧНЫМ": 2279,
      "ВСТРОЕН": 2280,
      "BY": 2281,
      "АССОР": 2282,
      "ПРОФИЛЬ": 2283,
      "АССОРТИ": 2284,
      "ЗОНА": 2285,
      "ГОРИСПОЛКОМА": 2286,
      "МИНГОРИСПОЛКОМА": 2287,
      "ПЕРЕХОД": 2288,
      "КЛАССА": 2289,
      "КИСЛОТНОСТИ": 2290,
      "NO": 2291,
      "ДЮ": 2292,
      "ПИСА": 2293,
      "АЛ": 2294,
      "ГЛЮ": 2295,
      "РОВАННОГО": 2296,
      "ОБСЛУЖИВАНИЯ": 2297,
      "КРАСНО": 2298,
      "КОСТИ": 2299,
      "СОК": 2300,
      "ЛИТ": 2301,
      "ПОДРЯДЧИКОМ": 2302,
      "ОЧИСТКИ": 2303,
      "GB": 2304,
      "ОМ": 2305,
      "ДОМОВ": 2306,
      "ДОКУМЕНТОВ": 2307,
      "ЯТ": 2308,
      "САДО": 2309,
      "ЕДИ": 2310,
      "ЛЫЙ": 2311,
      "КПД": 2312,
      "ЛИДА": 2313,
      "ПЛАТА": 2314,
      "КРЕПЛЕНИЯ": 2315,
      "УНИВЕРСИТЕТ": 2316,
      "ТАЯ": 2317,
      "ГОРОДОК": 2318,
      "БОРОВ": 2319,
      "PON": 2320,
      "ПЛАНУ": 2321,
      "ВЕЙ": 2322,
      "ЗЕЛЕ": 2323,
      "СКОРОЙ": 2324,
      "ПОРТ": 2325,
      "GH": 2326,
      "ДИСК": 2327,
      "СПЕЦ": 2328,
      "ТРАНСПОРТА": 2329,
      "ТОВОГО": 2330,
      "PH": 2331,
      "ПЛИТ": 2332,
      "ПАНЕЛЬ": 2333,
      "ПРЕДСТА": 2334,
      "НАКОНЕЧ": 2335,
      "ИНВЕН": 2336,
      "ЧАЙ": 2337,
      "ЛИЗИНГА": 2338,
      "РАДИА": 2339,
      "ПОГРУЗ": 2340,
      "ЕМОЙ": 2341,
      "LT": 2342,
      "УЧЕБ": 2343,
      "ПРОЕКТИ": 2344,
      "ТРАНСГАЗ": 2345,
      "МЕСЯ": 2346,
      "САМОКЛЕ": 2347,
      "ПСА": 2348,
      "НОМЕР": 2349,
      "ДИАМЕТР": 2350,
      "КАРТОН": 2351,
      "МОВ": 2352,
      "ВАКУУМ": 2353,
      "ЭКО": 2354,
      "ИСПОЛНИТЕЛЬНОГО": 2355,
      "БЗ": 2356,
      "ЖНОЙ": 2357,
      "СЫРО": 2358,
      "КОВЫХ": 2359,
      "АКА": 2360,
      "УДО": 2361,
      "ТЬЕ": 2362,
      "ИХ": 2363,
      "САНИ": 2364,
      "КОМПЛЕКТУЮЩИЕ": 2365,
      "АККУМУЛЯТОР": 2366,
      "LA": 2367,
      "КОНТАКТ": 2368,
      "ОСИ": 2369,
      "ВИСИМОСТИ": 2370,
      "SO": 2371,
      "ФАР": 2372,
      "СТИТУ": 2373,
      "СОЕДИНИТЕЛЬ": 2374,
      "СКЛАД": 2375,
      "КОНТЕЙНЕР": 2376,
      "ГОФРИРОВАН": 2377,
      "СТОМАТОЛОГИЧЕСКАЯ": 2378,
      "ГАБАРИ": 2379,
      "СКОБЛ": 2380,
      "НАДЗОРА": 2381,
      "MAT": 2382,
      "ЖДЕН": 2383,
      "ГЕРБИ": 2384,
      "ШОК": 2385,
      "ПРОВОДОВ": 2386,
      "РЫЙ": 2387,
      "СВА": 2388,
      "SA": 2389,
      "ЗАЖИМ": 2390,
      "КРАСНЫЙ": 2391,
      "КОТЕЛЬНОЙ": 2392,
      "КОНЦЕНТРАЦИИ": 2393,
      "ПАССАЖИР": 2394,
      "ДЕЯ": 2395,
      "УЧРЕЖДЕНИЯ": 2396,
      "АНТИОКИСЛИТЕЛЬ": 2397,
      "УСТРОЙСТВОМ": 2398,
      "ПЕДИ": 2399,
      "НОРМА": 2400,
      "ЗАПАСНЫХ": 2401,
      "НАГРЕ": 2402,
      "FOR": 2403,
      "ФАО": 2404,
      "ПЕН": 2405,
      "БАЙ": 2406,
      "КАРТРИДЖ": 2407,
      "МОГИЛЕВЭНЕРГО": 2408,
      "ЗДАНИЕ": 2409,
      "ТЕКС": 2410,
      "БЕЛИ": 2411,
      "ИСПРА": 2412,
      "ТОВЫЙ": 2413,
      "ВЕЩЕСТВА": 2414,
      "ЧАСТОТ": 2415,
      "УТ": 2416,
      "ОБРЕ": 2417,
      "САНИТАР": 2418,
      "ПОВЫ": 2419,
      "ПОЛУЧ": 2420,
      "РОГА": 2421,
      "КВАРТА": 2422,
      "СТВЕННОЙ": 2423,
      "ЗАПОР": 2424,
      "БАТА": 2425,
      "ПОСТАВЩИКА": 2426,
      "СКОПИ": 2427,
      "ТИЧЕСКАЯ": 2428,
      "МОТОРС": 2429,
      "МАТЕРИАЛА": 2430,
      "ОТВОД": 2431,
      "АРМА": 2432,
      "SC": 2433,
      "ПРИЛОЖЕНИЯ": 2434,
      "АГРОПРОМЫШЛЕННЫЙ": 2435,
      "ЛОМ": 2436,
      "РАЗРАБОТКИ": 2437,
      "ВЕЛИ": 2438,
      "САН": 2439,
      "УДА": 2440,
      "ПРИВОД": 2441,
      "ПУСКОНАЛАДОЧНЫХ": 2442,
      "КИЕ": 2443,
      "ПЛАТ": 2444,
      "ОЗИ": 2445,
      "РАЙОННЫЙ": 2446,
      "РАСШИРЕ": 2447,
      "PER": 2448,
      "СПОСОБ": 2449,
      "ПЛАН": 2450,
      "ОБОЛОЧКА": 2451,
      "ББ": 2452,
      "БЕЛМЕД": 2453,
      "ШКИНА": 2454,
      "ССИЙ": 2455,
      "TER": 2456,
      "РНЫЕ": 2457,
      "СЛОНИМ": 2458,
      "ВАНИЕМ": 2459,
      "ЙНЫЙ": 2460,
      "НИТЬ": 2461,
      "СТАР": 2462,
      "ХРОМА": 2463,
      "ТЕХНИЧЕСКИМИ": 2464,
      "РЕСУР": 2465,
      "БИЛИ": 2466,
      "ПОДДЕР": 2467,
      "ДЕПАРТАМЕНТА": 2468,
      "МОГИЛЕВСКОЕ": 2469,
      "ПОСЛЕ": 2470,
      "ГЕНПЛАНУ": 2471,
      "ИНЖЕНЕРНЫХ": 2472,
      "ГОМЕЛЬСКОЕ": 2473,
      "МОЕ": 2474,
      "ШИНА": 2475,
      "МАШИНЫ": 2476,
      "ПЕРЕВОЗКЕ": 2477,
      "ОСУЩЕСТВЛЯ": 2478,
      "ФИЦИРУ": 2479,
      "ПЕРСО": 2480,
      "NE": 2481,
      "СТАЛЬНОЙ": 2482,
      "АССОРТИМЕНТЕ": 2483,
      "KA": 2484,
      "ПРИКРЕПЛЕ": 2485,
      "MBH": 2486,
      "МОГИЛЁ": 2487,
      "ГИБ": 2488,
      "СВЕР": 2489,
      "ЛЕКАРСТВЕННОЕ": 2490,
      "ПОСТАВКИ": 2491,
      "ПРОГРАММНОГО": 2492,
      "ДАННЫХ": 2493,
      "ДЛИН": 2494,
      "КОВА": 2495,
      "PO": 2496,
      "ДИЗЕ": 2497,
      "КОСТЮМ": 2498,
      "АСФАЛЬ": 2499,
      "ТОЛЩИНА": 2500,
      "АВТОМАТИ": 2501,
      "УБОР": 2502,
      "МИНСКОГО": 2503,
      "FI": 2504,
      "MAN": 2505,
      "ЗАКОНО": 2506,
      "МУФ": 2507,
      "ТОВАЯ": 2508,
      "ЗДАНИЙ": 2509,
      "ЗАМЕНОЙ": 2510,
      "ВНОЕ": 2511,
      "КРЕМ": 2512,
      "ВОРОТ": 2513,
      "ЙНИК": 2514,
      "ДОЛЖНА": 2515,
      "ЛЕГА": 2516,
      "БЕЛМЕДПРЕПАРАТЫ": 2517,
      "ФЛО": 2518,
      "БЕЛАРУСЬКАЛИЙ": 2519,
      "ЛАБОРАТОР": 2520,
      "ГИНА": 2521,
      "КОП": 2522,
      "МЕТРА": 2523,
      "МНОГОФУНКЦИОНА": 2524,
      "ФОРМЕ": 2525,
      "ДЕЯТЕЛЬ": 2526,
      "НОЖ": 2527,
      "ВОВ": 2528,
      "ОБЕЗ": 2529,
      "СИП": 2530,
      "УПАКОВО": 2531,
      "КОМПЬЮТЕР": 2532,
      "БИОЛОГИИ": 2533,
      "СОДЕРЖАНИЕ": 2534,
      "МОНТА": 2535,
      "SU": 2536,
      "АВТОМОБИЛЕЙ": 2537,
      "ЖЕЛЕЗОБЕ": 2538,
      "СЕРТИ": 2539,
      "ТЭЦ": 2540,
      "ЧАТЫЙ": 2541,
      "ЛЕСХОЗ": 2542,
      "МЯСА": 2543,
      "ВНУТРИ": 2544,
      "ГЛИ": 2545,
      "ПОЛИЭ": 2546,
      "ПОДТВЕР": 2547,
      "ЦАХ": 2548,
      "СКЛАДА": 2549,
      "КАПИТАЛЬНОГО": 2550,
      "ДОЛЯ": 2551,
      "ХАРАКТЕРИСТИКАМИ": 2552,
      "ВВОДА": 2553,
      "ШЛИ": 2554,
      "МИКРОБИОЛОГИИ": 2555,
      "МАРКА": 2556,
      "GMBH": 2557,
      "ДЕЛА": 2558,
      "ОПОР": 2559,
      "ФОТО": 2560,
      "ДЕЗИНФИЦИРУ": 2561,
      "ВЕТЕРИ": 2562,
      "ПУНК": 2563,
      "ЕМЫЕ": 2564,
      "РАСТВОР": 2565,
      "ВЕТЕРИНА": 2566,
      "ОГНЕ": 2567,
      "АДА": 2568,
      "ВЛИ": 2569,
      "ВНУТРЕННИЙ": 2570,
      "МОЩНОСТЬ": 2571,
      "СТЕЛ": 2572,
      "ЕГО": 2573,
      "ИСК": 2574,
      "ВИД": 2575,
      "ВОР": 2576,
      "СКОРО": 2577,
      "ТУМ": 2578,
      "АКТИВ": 2579,
      "ВЫСОКО": 2580,
      "КОРОВ": 2581,
      "МЯГ": 2582,
      "БЕЛОРУССКИЙ": 2583,
      "СУЩЕСТВУ": 2584,
      "ЖЕЛЕЗОБЕТОН": 2585,
      "МЕЖ": 2586,
      "ВАРЕ": 2587,
      "МАССОВАЯ": 2588,
      "ЭС": 2589,
      "ТЕХНИЧЕСКИХ": 2590,
      "БЛЮД": 2591,
      "СУБПОДРЯДЧИКОМ": 2592,
      "КАЛЬ": 2593,
      "ФРО": 2594,
      "ЗАВ": 2595,
      "ЧАЯ": 2596,
      "СРЕДА": 2597,
      "ПРОИЗВОДСТВО": 2598,
      "КАЛИБ": 2599,
      "ОХРА": 2600,
      "ХЛЕБ": 2601,
      "ЕНЫ": 2602,
      "БОБРУЙСКАЯ": 2603,
      "ДЕРЕВЯ": 2604,
      "ПНЕВМО": 2605,
      "ТОЛО": 2606,
      "МЕТРОВ": 2607,
      "КАНАЛ": 2608,
      "ОБЕСПЕЧ": 2609,
      "DA": 2610,
      "ПИНСК": 2611,
      "УХ": 2612,
      "ПЕЧАТЬЮ": 2613,
      "ЭМАЛЬ": 2614,
      "ПРОБИ": 2615,
      "ЭКСПЕР": 2616,
      "ПРЕДОСТАВИТЬ": 2617,
      "НЦЕ": 2618,
      "ДИСПЕ": 2619,
      "ЖИЛИЩНО": 2620,
      "ОФОРМ": 2621,
      "КОЖА": 2622,
      "ББШВ": 2623,
      "ИНСТРУМЕНТА": 2624,
      "ЗАКОНОДАТЕЛЬ": 2625,
      "ОРЕ": 2626,
      "МИКС": 2627,
      "ФИЗ": 2628,
      "КРЫШКА": 2629,
      "СН": 2630,
      "ДОСТАВКА": 2631,
      "ГИГИЕНЫ": 2632,
      "МЫХ": 2633,
      "УСТАНОВКОЙ": 2634,
      "ОТВЕРСТИ": 2635,
      "ТОРГОВО": 2636,
      "УЧАСТКЕ": 2637,
      "ВЕРТИКА": 2638,
      "СТОК": 2639,
      "НШ": 2640,
      "ПАКЕТ": 2641,
      "ГОРИЗОН": 2642,
      "КОБРИ": 2643,
      "GA": 2644,
      "ЛУБ": 2645,
      "РЕШ": 2646,
      "ХРОМАТО": 2647,
      "TR": 2648,
      "ПРЕДЛАГАЕМ": 2649,
      "MOS": 2650,
      "СТАЛ": 2651,
      "ТРАНСПОРТИ": 2652,
      "КАРДИО": 2653,
      "НАПРЯЖЕНИЕ": 2654,
      "МТС": 2655,
      "ПРОЕКТА": 2656,
      "ВТУЛКА": 2657,
      "VE": 2658,
      "ДОЗА": 2659,
      "ДЫМО": 2660,
      "НАЛИЧИЕ": 2661,
      "ЖДУ": 2662,
      "ЛИНИЯ": 2663,
      "ПОКРЫТИЕ": 2664,
      "ВИЧСКОГО": 2665,
      "ИНА": 2666,
      "СИНТЕ": 2667,
      "КОМБИНИ": 2668,
      "ПЕРЕГОВОРОВ": 2669,
      "ВЫМИ": 2670,
      "ОТОПЛЕНИЯ": 2671,
      "ЦИОННО": 2672,
      "ГАЙКА": 2673,
      "ЭТАЖ": 2674,
      "МАРКЕ": 2675,
      "ДИСКО": 2676,
      "ЖНАЯ": 2677,
      "УГ": 2678,
      "ЖЕЛЕ": 2679,
      "РОДИ": 2680,
      "ФОРМЫ": 2681,
      "ОЗ": 2682,
      "СПОР": 2683,
      "ДАЧЕЙ": 2684,
      "НОМЕ": 2685,
      "СЕРИЯ": 2686,
      "ГЕЛЬ": 2687,
      "ПИРА": 2688,
      "SSD": 2689,
      "ДОМЕ": 2690,
      "КАЛИН": 2691,
      "ЗАД": 2692,
      "ИНСТИТУ": 2693,
      "ДЕЛЬНЫЙ": 2694,
      "МУЖ": 2695,
      "БОЛТ": 2696,
      "ИСТОЧ": 2697,
      "ЧЁ": 2698,
      "НАРУЖНЫХ": 2699,
      "ИСПОЛНЕНИЯ": 2700,
      "АВББШВ": 2701,
      "СИН": 2702,
      "ПРИВОДОМ": 2703,
      "ДРУ": 2704,
      "СВО": 2705,
      "ПЕРЕД": 2706,
      "КОМПЛ": 2707,
      "ONE": 2708,
      "СЛАВ": 2709,
      "ДЕЙСТВИЯ": 2710,
      "ГЛЮКО": 2711,
      "ЪЁМ": 2712,
      "ПОБЕ": 2713,
      "ТКАНЬ": 2714,
      "УПЛОТНЕНИЕ": 2715,
      "МС": 2716,
      "СТУ": 2717,
      "СВ": 2718,
      "ОТХОДОВ": 2719,
      "ЭЛЕМЕНТ": 2720,
      "МОДЕРНИЗАЦИИ": 2721,
      "ГЗ": 2722,
      "ПОЛОТ": 2723,
      "УХЛ": 2724,
      "ТОРМО": 2725,
      "ФИЛЬТРА": 2726,
      "ЗИОН": 2727,
      "ПРОДУКЦИЯ": 2728,
      "СУХА": 2729,
      "ГИБРИДОВ": 2730,
      "СЫРЬ": 2731,
      "БОБРУЙСК": 2732,
      "ЧЕТА": 2733,
      "УСТАНОВЛЕН": 2734,
      "ОРИГИНА": 2735,
      "УТЕПЛЕ": 2736,
      "ПАНЕЛИ": 2737,
      "ПОКАЗА": 2738,
      "СОРТА": 2739,
      "ОМТС": 2740,
      "СТВЕННЫЙ": 2741,
      "ТУА": 2742,
      "МАЛО": 2743,
      "ЛИЗАТОР": 2744,
      "ГИБРИД": 2745,
      "МВД": 2746,
      "ПРЕОБРАЗОВАТЕЛЬ": 2747,
      "САМ": 2748,
      "ХЛОРИД": 2749,
      "IA": 2750,
      "КОМПЛЕКТАЦИИ": 2751,
      "ИЗМЕРИТЕЛЬ": 2752,
      "ВАЛИ": 2753,
      "CON": 2754,
      "ШКОЙ": 2755,
      "CL": 2756,
      "БОТИ": 2757,
      "ЧИТЕЛЬ": 2758,
      "ТЬСЯ": 2759,
      "СТАВКА": 2760,
      "СТИЧЕСКАЯ": 2761,
      "ИНВЕНТАР": 2762,
      "РГ": 2763,
      "СТАНОК": 2764,
      "ЧНОСТЬ": 2765,
      "БОБРУЙСКИЙ": 2766,
      "КЛ": 2767,
      "ОФИ": 2768,
      "ШКОЛА": 2769,
      "РИЙ": 2770,
      "РАСС": 2771,
      "ЦИЯМ": 2772,
      "МЕТАЛЛИЧЕСКИЙ": 2773,
      "СЕРИИ": 2774,
      "ЛЬСКАЯ": 2775,
      "ЧИСЛЕ": 2776,
      "КАНАЛИЗАЦИИ": 2777,
      "КОНАЗОЛ": 2778,
      "ФРИ": 2779,
      "ВХОД": 2780,
      "ПРИЛЕГА": 2781,
      "СООТВЕТСТВИЕ": 2782,
      "ШИРИ": 2783,
      "КАНАЛИЗА": 2784,
      "МЕСТИ": 2785,
      "КУЛЯ": 2786,
      "АВТОМАТИЗИРОВАН": 2787,
      "АВТОМАТИЧЕСКОЙ": 2788,
      "ГЕРМЕТИ": 2789,
      "КИСЛОТЫ": 2790,
      "РЕНТ": 2791,
      "ЗАМ": 2792,
      "ПЕРЕВОЗКИ": 2793,
      "НЕЗАВИСИМОСТИ": 2794,
      "БИНЕ": 2795,
      "ОТДЕЛЕНИЯ": 2796,
      "ЗДО": 2797,
      "УСТОЙ": 2798,
      "СЛУЖ": 2799,
      "ПРАВО": 2800,
      "ПЛАТЕ": 2801,
      "ШЕЙ": 2802,
      "СООТВЕТСТВОВАТЬ": 2803,
      "ЯЩИК": 2804,
      "НЕРЖАВЕЮЩЕЙ": 2805,
      "ТЧ": 2806,
      "ВЫСОТА": 2807,
      "РАМКАХ": 2808,
      "СУЛЬФА": 2809,
      "ПРОКЛАДКА": 2810,
      "КУС": 2811,
      "ВОЛОКНО": 2812,
      "ОСВЕ": 2813,
      "ГОРИЗОНТА": 2814,
      "УСТОЙЧИ": 2815,
      "КОВСКОГО": 2816,
      "КОЛОН": 2817,
      "ТЕПЛОВЫЕ": 2818,
      "БЮ": 2819,
      "ДЗЕРЖИНСКИЙ": 2820,
      "РАЗЪЕ": 2821,
      "ВНЫХ": 2822,
      "ЭЛЕМЕНТОВ": 2823,
      "СМОТРЕ": 2824,
      "ЗД": 2825,
      "КОМПРЕССОР": 2826,
      "ИНСТИТУТ": 2827,
      "ЗАКРЫ": 2828,
      "СЕРТИФИКА": 2829,
      "СПК": 2830,
      "ВАГО": 2831,
      "СЕЧ": 2832,
      "ИЗГОТОВЛЕНИЯ": 2833,
      "БЕРЕЗО": 2834,
      "ГРОДНЕНСКОЕ": 2835,
      "ТИЧЕСКОГО": 2836,
      "УБОРО": 2837,
      "ПРИОБРЕ": 2838,
      "КЛАДЫ": 2839,
      "ПОСЕ": 2840,
      "ПТИЦЫ": 2841,
      "ДЕЗИНФЕК": 2842,
      "КРИСТАЛ": 2843,
      "ЧЕСКОЙ": 2844,
      "FL": 2845,
      "CM": 2846,
      "КРОНШ": 2847,
      "ACK": 2848,
      "CA": 2849,
      "АБ": 2850,
      "INA": 2851,
      "МОЖЕН": 2852,
      "ЭЛЕМЕНТА": 2853,
      "ГОРОДСКОЙ": 2854,
      "СЕЛЬМАШ": 2855,
      "ЯЩАЯ": 2856,
      "ЦЕХ": 2857,
      "КЕРАМИЧЕ": 2858,
      "АТРИ": 2859,
      "ПЕТ": 2860,
      "ТИЧЕСКИЕ": 2861,
      "ID": 2862,
      "КРОНШТЕЙ": 2863,
      "РАЗМЕРЫ": 2864,
      "ГЕРБИЦИД": 2865,
      "RUS": 2866,
      "ОПРО": 2867,
      "ПКА": 2868,
      "ПРОФИЛЯ": 2869,
      "МОНТАЖА": 2870,
      "СООТВЕТСТВУ": 2871,
      "АСФАЛЬТО": 2872,
      "ШИН": 2873,
      "ДОГОВОРА": 2874,
      "ВАНИИ": 2875,
      "МИКРОРАЙОНЕ": 2876,
      "СНАБЖЕНИЕ": 2877,
      "ДЕТСКИЙ": 2878,
      "ВИЧСКОЕ": 2879,
      "РАСТ": 2880,
      "ИССЛЕДОВАНИЙ": 2881,
      "ПЛЕНКИ": 2882,
      "НИНА": 2883,
      "ЖИВО": 2884,
      "КИСЛОТА": 2885,
      "ВРЕ": 2886,
      "VER": 2887,
      "ПРОВЕР": 2888,
      "УКАЗАНЫ": 2889,
      "СУШИ": 2890,
      "ВЛ": 2891,
      "ПУСКОВОЙ": 2892,
      "ЧНОСТИ": 2893,
      "ШТУКА": 2894,
      "КОМХОЗ": 2895,
      "TO": 2896,
      "СПА": 2897,
      "СЕТ": 2898,
      "ПЛЮ": 2899,
      "РКА": 2900,
      "ПЛИТЫ": 2901,
      "ШЛИФО": 2902,
      "DS": 2903,
      "ХОЛОД": 2904,
      "ОБМЕН": 2905,
      "ОНКОЛОГИЧЕСКИЙ": 2906,
      "ДОЛЖНЫ": 2907,
      "АДАП": 2908,
      "СЕЙ": 2909,
      "ЧИКОВ": 2910,
      "ЧС": 2911,
      "COM": 2912,
      "ТИВНАЯ": 2913,
      "ФАЗ": 2914,
      "RU": 2915,
      "КОНЦЕНТРАТ": 2916,
      "ВЫП": 2917,
      "ПРОЦЕДУРЫ": 2918,
      "ОБЩЕЖИТИЯ": 2919,
      "EP": 2920,
      "ТЕЛ": 2921,
      "ЧЕЕ": 2922,
      "ВОЗДУХО": 2923,
      "КОНСЕРВНЫЙ": 2924,
      "СВОЙСТВА": 2925,
      "УПАКОВКА": 2926,
      "ЖНЫЙ": 2927,
      "СОЛ": 2928,
      "ИНЖЕНЕРНО": 2929,
      "ПОЛИМЕ": 2930,
      "ВИТ": 2931,
      "ТЫЕ": 2932,
      "XPON": 2933,
      "РЕАБИЛИ": 2934,
      "КТОРА": 2935,
      "ПМК": 2936,
      "УПАКОВКЕ": 2937,
      "КБ": 2938,
      "РАПСА": 2939,
      "ПСИ": 2940,
      "ЖДЕНИЕ": 2941,
      "ДОМОСТРОИТЕЛЬНЫЙ": 2942,
      "MS": 2943,
      "МАТ": 2944,
      "КИХ": 2945,
      "ФИЗИ": 2946,
      "ОПЫ": 2947,
      "ЧЕСНО": 2948,
      "ЗЕЛ": 2949,
      "ПЦ": 2950,
      "НИКОМ": 2951,
      "МЕЖДУ": 2952,
      "КОЛОНКА": 2953,
      "МЯН": 2954,
      "AK": 2955,
      "ПАКЕТЫ": 2956,
      "ВКЕ": 2957,
      "ЦИФРО": 2958,
      "ИНДИВИДУАЛЬНОЙ": 2959,
      "ЭНЕРГЕТИКИ": 2960,
      "СПЕЦИАЛЬНЫХ": 2961,
      "НАПО": 2962,
      "РЕМОНТНО": 2963,
      "ДОПУ": 2964,
      "ВАТЕЛЯ": 2965,
      "ЯМИ": 2966,
      "EF": 2967,
      "ТЕЛЬНЫЙ": 2968,
      "СШИ": 2969,
      "ЗАДВИЖ": 2970,
      "БЛЮДЕНИЯ": 2971,
      "СИНИЙ": 2972,
      "ЩИХ": 2973,
      "МАНЖЕ": 2974,
      "ОВО": 2975,
      "ШК": 2976,
      "АКАДЕМИ": 2977,
      "ЗАПРО": 2978,
      "ПОЛНИ": 2979,
      "ШЕГО": 2980,
      "ОКТЯБРЬСКАЯ": 2981,
      "КРАНА": 2982,
      "ШПРИ": 2983,
      "ГАХ": 2984,
      "ТЕМПЕРАТУРА": 2985,
      "DER": 2986,
      "ОБЛАСТНОГО": 2987,
      "ЦЕМЕНТ": 2988,
      "КОЛА": 2989,
      "ЗАГУ": 2990,
      "ОРГАНИЗАЦИЙ": 2991,
      "ОСО": 2992,
      "SS": 2993,
      "ШАЙ": 2994,
      "COW": 2995,
      "МЕХАНИЗ": 2996,
      "ВИДЕОНА": 2997,
      "ДЖИ": 2998,
      "ЭЛЕКТРОЭНЕРГЕТИКИ": 2999,
      "ВНЫЕ": 3000,
      "СНЫЙ": 3001,
      "КРОВЕ": 3002,
      "СТРУКТУ": 3003,
      "ФАСОВКА": 3004,
      "БУДЕТ": 3005,
      "СПОМО": 3006,
      "ФАЙЛЕ": 3007,
      "ГЗЛИН": 3008,
      "ЭКСТРАКТЫ": 3009,
      "ЗАДАНИЕ": 3010,
      "ХРА": 3011,
      "ВЫХОД": 3012,
      "ГОМСЕЛЬМАШ": 3013,
      "СВЕТИЛЬНИК": 3014,
      "БОТИНКИ": 3015,
      "СИЯ": 3016,
      "РЕЖИ": 3017,
      "ЖНО": 3018,
      "ЦКЕ": 3019,
      "MOSCOW": 3020,
      "СТОЛБ": 3021,
      "НОВОГО": 3022,
      "ЗЬ": 3023,
      "ТОРУ": 3024,
      "СМЕСИ": 3025,
      "UNG": 3026,
      "ТЕМПЕРАТУ": 3027,
      "МИНСКОБЛ": 3028,
      "ДСП": 3029,
      "ВЕСТИ": 3030,
      "АЛЕКСА": 3031,
      "ПРОНИЦА": 3032,
      "КОММУТА": 3033,
      "ХРОМАТОГРАФИ": 3034,
      "ВСПОМО": 3035,
      "FP": 3036,
      "СТОВИ": 3037,
      "СИСТЕМОЙ": 3038,
      "ЦРБ": 3039,
      "КОМБАЙ": 3040,
      "ИНФОРМАЦИИ": 3041,
      "ИЗОЛИ": 3042,
      "УЗЕЛ": 3043,
      "ТЕЛЬНОГО": 3044,
      "АЗОТ": 3045,
      "ИНДУ": 3046,
      "ИСПОЛЬЗОВАНИЯ": 3047,
      "ФУРГО": 3048,
      "НДС": 3049,
      "МИЧЕСКОГО": 3050,
      "ПРЕДНАЗНАЧЕННАЯ": 3051,
      "ЗЕН": 3052,
      "ТНОЕ": 3053,
      "СЕТЕ": 3054,
      "CB": 3055,
      "БЕЛОРУССКАЯ": 3056,
      "ТЕЧЕНИЕ": 3057,
      "МИНСКОЙ": 3058,
      "СКВА": 3059,
      "АВТОБУ": 3060,
      "ПРОИЗВОДСТВЕННОГО": 3061,
      "КАМЕРА": 3062,
      "ВСПОМОГАТЕЛЬ": 3063,
      "ЖДАН": 3064,
      "ПАДА": 3065,
      "MI": 3066,
      "ОБЪЕДИН": 3067,
      "СВИН": 3068,
      "ЦИЛИНД": 3069,
      "РУКО": 3070,
      "МАСЛА": 3071,
      "МЕТРО": 3072,
      "РАЗРАБОТКЕ": 3073,
      "КОЛЛЕ": 3074,
      "ГРАЖДАН": 3075,
      "ВОДОСНАБЖЕНИЯ": 3076,
      "РУКАВ": 3077,
      "БУТЫ": 3078,
      "DIN": 3079,
      "РВД": 3080,
      "РАБОЧАЯ": 3081,
      "ЛИСТОВ": 3082,
      "ИСПРАВИТЕЛЬ": 3083,
      "ПШ": 3084,
      "ЗАДАНИЕМ": 3085,
      "CI": 3086,
      "ТКАНИ": 3087,
      "ДЖЕ": 3088,
      "РОВАННЫЕ": 3089,
      "ДВИГАТЕЛЯ": 3090,
      "СТЕЛЛА": 3091,
      "МЕТРОМ": 3092,
      "ДЕЯТЕЛЬНОСТИ": 3093,
      "ОЛЕ": 3094,
      "СЕМЯН": 3095,
      "MAX": 3096,
      "ТВЕРДО": 3097,
      "ХИРУРГИИ": 3098,
      "ГЕМО": 3099,
      "PLUS": 3100,
      "РЕНТГЕ": 3101,
      "ЖАБИН": 3102,
      "ЧЕТЫ": 3103,
      "ТЕПЛОВЫХ": 3104,
      "ЖКИ": 3105,
      "ФАСАДА": 3106,
      "ОБЕСПЕЧЕНИЮ": 3107,
      "ОЧИ": 3108,
      "ВЫЯ": 3109,
      "ТЕХНИЧЕСКИЙ": 3110,
      "ТРОЙНИК": 3111,
      "НИЦ": 3112,
      "КОВСКИЙ": 3113,
      "ПОТРЕБИ": 3114,
      "ПОЛИАМИ": 3115,
      "ВИТЕБСКОЕ": 3116,
      "ПОТРЕБ": 3117,
      "СОМО": 3118,
      "ТЕМПЕРАТУР": 3119,
      "УЮ": 3120,
      "ПИЩЕВОЙ": 3121,
      "ТРУБОПРОВОДОВ": 3122,
      "РЕЗА": 3123,
      "ЧНЕ": 3124,
      "ЗАГРУЗКА": 3125,
      "КОМСОМО": 3126,
      "ТРЕБОВАНИЯМ": 3127,
      "НЕОБХОДИМО": 3128,
      "ИЗМЕРЕНИЯ": 3129,
      "ТАМОЖ": 3130,
      "ПСО": 3131,
      "ФЛЕ": 3132,
      "YN": 3133,
      "ГРУППЫ": 3134,
      "ВИТАМИН": 3135,
      "СХ": 3136,
      "ЭКСПЕДИ": 3137,
      "CK": 3138,
      "WE": 3139,
      "ME": 3140,
      "СУХАЯ": 3141,
      "ЗЕРНО": 3142,
      "ОНИРОВАНИЯ": 3143,
      "СОСТАВОМ": 3144,
      "БАРАНОВИЧИ": 3145,
      "ХИМВОЛОКНО": 3146,
      "ВИДЕОНАБЛЮДЕНИЯ": 3147,
      "ЗУБ": 3148,
      "ОПИСА": 3149,
      "ЭЛЕКТРОННЫЙ": 3150,
      "ГРЯ": 3151,
      "ТРАНСПОРТОМ": 3152,
      "НАМИ": 3153,
      "СУТ": 3154,
      "ГРАНИЦАХ": 3155,
      "ОПОВЕ": 3156,
      "БАТАРЕ": 3157,
      "ЛУНИ": 3158,
      "LEX": 3159,
      "МОДЕЛИ": 3160,
      "ТРУБКА": 3161,
      "ВЭ": 3162,
      "ЛЕВО": 3163,
      "ВИРУ": 3164,
      "ОБЕСПЕЧИВА": 3165,
      "СОДЕРЖИ": 3166,
      "СЕЛЬСКОХОЗЯЙСТВЕННОЕ": 3167,
      "ТМ": 3168,
      "РОВКЕ": 3169,
      "БАТЫ": 3170,
      "ЗВЕ": 3171,
      "ВЕДЕНИЕ": 3172,
      "КИР": 3173,
      "РЕЗИН": 3174,
      "ПРИМЕ": 3175,
      "АЭРО": 3176,
      "OK": 3177,
      "ДРИ": 3178,
      "ТОЛЩИНОЙ": 3179,
      "КОНТЕЙНЕРА": 3180,
      "MM": 3181,
      "ИВАЦЕ": 3182,
      "ПРЕДО": 3183,
      "ПОДГОТОВКИ": 3184,
      "ТОРГАХ": 3185,
      "РЕЗУЛЬ": 3186,
      "РЕЗУЛЬТА": 3187,
      "VA": 3188,
      "ГЛАВНОЕ": 3189,
      "ПЛЮС": 3190,
      "ELD": 3191,
      "БУМАГИ": 3192,
      "НИЦЫ": 3193,
      "ВЕСТ": 3194,
      "ФРУН": 3195,
      "СЕРЫЙ": 3196,
      "ОБОРО": 3197,
      "МЕДИЦИНСКОГО": 3198,
      "DC": 3199,
      "ЖНЫХ": 3200,
      "ЧЕРТ": 3201,
      "НАПРАВЛЯ": 3202,
      "ИСКЛЮ": 3203,
      "ЖЕСТ": 3204,
      "РОВАННОЙ": 3205,
      "СЧЕТЧИК": 3206,
      "ШНЕ": 3207,
      "ДОБРУ": 3208,
      "ГРУЗОПОДЪЕМНОСТЬЮ": 3209,
      "НУЖД": 3210,
      "УСИ": 3211,
      "ФЕЙ": 3212,
      "КУРТКА": 3213,
      "БЕЛАРУСИ": 3214,
      "САХАРО": 3215,
      "СООРУЖЕНИЙ": 3216,
      "УРО": 3217,
      "ВЫРА": 3218,
      "КТП": 3219,
      "КОЛБАСНЫХ": 3220,
      "ТАЙ": 3221,
      "ВНУТРЕННЕЙ": 3222,
      "ИСКУС": 3223,
      "КРЫТИЯ": 3224,
      "УЧАСТНИКА": 3225,
      "СТВЕННАЯ": 3226,
      "ИНДИКА": 3227,
      "ФЛУ": 3228,
      "ГОЛО": 3229,
      "БОРЫ": 3230,
      "ЧЕК": 3231,
      "DU": 3232,
      "ЩЕЙ": 3233,
      "ОСИПО": 3234,
      "БИНА": 3235,
      "BRWIN": 3236,
      "АРОМАТИЗАТОР": 3237,
      "TA": 3238,
      "MIC": 3239,
      "ФОРМАТ": 3240,
      "ЭЛА": 3241,
      "ТИВА": 3242,
      "МЕЛИО": 3243,
      "ПРИЛЕГАЮЩЕЙ": 3244,
      "ТЕПЛОИЗОЛЯ": 3245,
      "ДВЕРИ": 3246,
      "ЭФФЕК": 3247,
      "КОВЫЕ": 3248,
      "УЧАСТВОВАТЬ": 3249,
      "ЭЛЕМЕНТАМИ": 3250,
      "КОНСТРУКЦИИ": 3251,
      "ДИНО": 3252,
      "КАРКА": 3253,
      "СТОВЕР": 3254,
      "ШКОЛЬНОГО": 3255,
      "ОХИ": 3256,
      "ПЕРЕДА": 3257,
      "ХЛОП": 3258,
      "ВР": 3259,
      "ПРЕДЕЛА": 3260,
      "РАЗМЕРОМ": 3261,
      "GS": 3262,
      "ОКРБ": 3263,
      "УГЛО": 3264,
      "СОФ": 3265,
      "РОГО": 3266,
      "СМАЗ": 3267,
      "БАЗА": 3268,
      "БАЗЕ": 3269,
      "ЭЛЕМЕНТЫ": 3270,
      "ЧЕГО": 3271,
      "ГАРА": 3272,
      "ЖИЛОМ": 3273,
      "ЖИЛКОМХОЗ": 3274,
      "ЛАМ": 3275,
      "СОЦИА": 3276,
      "СОВХОЗ": 3277,
      "РАСШИРЕНИЕ": 3278,
      "ВИТЕЛЯ": 3279,
      "ЗОВ": 3280,
      "ОКОННЫХ": 3281,
      "ДОБРУШ": 3282,
      "УКАЗАН": 3283,
      "РЕДУКТОР": 3284,
      "ЛЕНИНСКОГО": 3285,
      "ИЗМЕН": 3286,
      "САД": 3287,
      "ВЫГРУЗКА": 3288,
      "УСЛОВИЯХ": 3289,
      "ЛИФТОВ": 3290,
      "ЧЕСНОК": 3291,
      "ПРИЕМ": 3292,
      "БРЕСТЭНЕРГО": 3293,
      "ВЕНТИЛЯЦИИ": 3294,
      "ПОВЕРХНОСТИ": 3295,
      "АРЕНДЫ": 3296,
      "КРЫШКОЙ": 3297,
      "ПРЕДЕЛАХ": 3298,
      "ЛИДСКИЙ": 3299,
      "ТЕХНОЛОГИЧЕСКОГО": 3300,
      "ОГРАНИ": 3301,
      "КЛИМО": 3302,
      "ЛЫЕ": 3303,
      "ВЯЗ": 3304,
      "ДЕТЕЙ": 3305,
      "ТРАЗ": 3306,
      "ПЛОТНОСТЬ": 3307,
      "ЭЛЕКТРОДВИГА": 3308,
      "ПЛОЩАД": 3309,
      "ВОЛОКОН": 3310,
      "ЗАЯВКИ": 3311,
      "СЫРОДЕЛЬНЫЙ": 3312,
      "РАСТИТЕЛЬ": 3313,
      "ПОУЧАСТВОВАТЬ": 3314,
      "ЗАЩИТНЫЕ": 3315,
      "ОКСИ": 3316,
      "РЕЛЕ": 3317,
      "CHINA": 3318,
      "ЧЬ": 3319,
      "НАСОСА": 3320,
      "ГРУПП": 3321,
      "НГА": 3322,
      "КОВОГО": 3323,
      "КОМПРЕССО": 3324,
      "PN": 3325,
      "TRA": 3326,
      "ГАМ": 3327,
      "СТЕК": 3328,
      "ФАРМА": 3329,
      "БРЮ": 3330,
      "САХАРНЫЙ": 3331,
      "ELL": 3332,
      "ДИАМЕТРОМ": 3333,
      "HER": 3334,
      "РКИ": 3335,
      "ПРЕДПРОЕКТНОЙ": 3336,
      "ПОРТУ": 3337,
      "ГЕМАТОЛОГИЧЕ": 3338,
      "КЭ": 3339,
      "ЭКОНО": 3340,
      "ОБУ": 3341,
      "ЭКСПЛУАТАЦИИ": 3342,
      "ДЗЕРЖИНСКОГО": 3343,
      "TECH": 3344,
      "ВЫШЕ": 3345,
      "МОЛОКО": 3346,
      "СУПЕР": 3347,
      "ПОЛЕ": 3348,
      "РЕЗКИ": 3349,
      "УЛИЦЕ": 3350,
      "ТРАНСПОРТНЫХ": 3351,
      "ARD": 3352,
      "RS": 3353,
      "ОБУЧ": 3354,
      "АКРИ": 3355,
      "РЕГИСТРАЦИИ": 3356,
      "ЗАТ": 3357,
      "ГАРАНТИЙ": 3358,
      "ОС": 3359,
      "СТР": 3360,
      "СКИДЕЛЬ": 3361,
      "ПРИМЕНЯ": 3362,
      "ГОДНОСТИ": 3363,
      "МОНИТОР": 3364,
      "ШЛАН": 3365,
      "НАКАЗА": 3366,
      "ФИЛЬТРО": 3367,
      "ИЗГОТОВЛЕНИЕ": 3368,
      "ТЗ": 3369,
      "РЕЕ": 3370,
      "БАЛЛО": 3371,
      "ЛОКА": 3372,
      "ГОРКИ": 3373,
      "ВРЕМЯ": 3374,
      "НАКАЗАНИЙ": 3375,
      "ВЬ": 3376,
      "ЗЕМЕЛЬ": 3377,
      "ДРОВА": 3378,
      "ВОДОКАНАЛ": 3379,
      "БЗМП": 3380,
      "СНАЯ": 3381,
      "КОТОРЫ": 3382,
      "ТЕПЛООБМЕН": 3383,
      "ПЕЛЬ": 3384,
      "КОРП": 3385,
      "ТИВНЫХ": 3386,
      "КРЕПЕ": 3387,
      "ШПА": 3388,
      "ОФ": 3389,
      "ВКЛАДЫ": 3390,
      "КОПЫ": 3391,
      "НС": 3392,
      "БЕРКУ": 3393,
      "ТВЕРДЫ": 3394,
      "ННОМ": 3395,
      "ВЫПОЛНЕН": 3396,
      "БП": 3397,
      "ФИКСА": 3398,
      "ТИЧЕСКОЙ": 3399,
      "РУЛОНА": 3400,
      "РАССМАТРИ": 3401,
      "ЧКОЙ": 3402,
      "ЗАГРУЗКИ": 3403,
      "УЛЬТРАЗ": 3404,
      "УЛЬТРАЗВУ": 3405,
      "ТУБЕРКУ": 3406,
      "СТАЛЬНАЯ": 3407,
      "ТЕРМОУ": 3408,
      "ВИНТ": 3409,
      "ДОСТОВЕР": 3410,
      "ПЛАТЫ": 3411,
      "ЙО": 3412,
      "РЕАК": 3413,
      "ГОРЬ": 3414,
      "ЦВЕТОВ": 3415,
      "ФОЛЬ": 3416,
      "ТОЧНОГО": 3417,
      "ПОРОШОК": 3418,
      "ГЛУБОК": 3419,
      "ТАХ": 3420,
      "ВЛЕННОЙ": 3421,
      "ПШЕНИ": 3422,
      "МОЛ": 3423,
      "ГОСУДАРСТВЕННОГО": 3424,
      "РИРОВАННОЕ": 3425,
      "ОТЛИ": 3426,
      "СКРЫ": 3427,
      "ГРОДНООБЛ": 3428,
      "СПЕЦИФИКАЦИИ": 3429,
      "YO": 3430,
      "АГЕНТ": 3431,
      "КОРА": 3432,
      "ОДЕЗИ": 3433,
      "ТОРМОЗ": 3434,
      "BE": 3435,
      "ЩУЧ": 3436,
      "ТЕНДЕР": 3437,
      "КОРОБКА": 3438,
      "ИНВАЛИ": 3439,
      "ГЕОДЕЗИ": 3440,
      "ИНВАЛИДОВ": 3441,
      "ГОМЕ": 3442,
      "ЛАБОРАТОРИ": 3443,
      "ТОПГАЗ": 3444,
      "МОДЕЛЬ": 3445,
      "СРЕДЫ": 3446,
      "ПИЩЕВЫХ": 3447,
      "КОТЛА": 3448,
      "УО": 3449,
      "РЕГИСТ": 3450,
      "ЛЕСО": 3451,
      "РАЗРЫ": 3452,
      "ГРУЗА": 3453,
      "КОНДИЦИОНИРОВАНИЯ": 3454,
      "ПОДТВЕРЖДА": 3455,
      "NA": 3456,
      "SAM": 3457,
      "РОВАННЫХ": 3458,
      "ПОСТАВКУ": 3459,
      "РАСЧЕТ": 3460,
      "КАБЕЛЯ": 3461,
      "РЕСУРСОВ": 3462,
      "ПРИОБРЕТЕ": 3463,
      "ДСК": 3464,
      "НАКЛАД": 3465,
      "УРЕ": 3466,
      "ЭКСПЕРТИ": 3467,
      "КАБ": 3468,
      "ТИПО": 3469,
      "ПОДДО": 3470,
      "ПЛАЗ": 3471,
      "ИМЕТЬ": 3472,
      "ИСПЫТАНИЙ": 3473,
      "ЗОВАН": 3474,
      "САНА": 3475,
      "ЖЕЛЕЗНО": 3476,
      "РАФИНА": 3477,
      "РОЗЕ": 3478,
      "ОТНО": 3479,
      "ЛИСТА": 3480,
      "ЗАРЯД": 3481,
      "ВИРУС": 3482,
      "КОМПЛЕКТОМ": 3483,
      "ГРОДНЕНСКОГО": 3484,
      "ИНТЕРФЕЙ": 3485,
      "ДУБ": 3486,
      "КАЖ": 3487,
      "РАНЕНИЮ": 3488,
      "ФОРМИ": 3489,
      "ФУНГИ": 3490,
      "КОМПОЗИ": 3491,
      "СЛ": 3492,
      "АСБ": 3493,
      "САХАРОРАФИНА": 3494,
      "САХАРОРАФИНАДНЫЙ": 3495,
      "ВЛОЖ": 3496,
      "КНИ": 3497,
      "ПРОВОЛО": 3498,
      "ПОДОШ": 3499,
      "ФЛАНЦЕВЫЙ": 3500,
      "ЖЕЛЕЗНОДОРОЖ": 3501,
      "ILL": 3502,
      "ЭЛЕКТРИЧЕСКОЙ": 3503,
      "NAD": 3504,
      "АВИА": 3505,
      "ЛЕСТ": 3506,
      "ЧЕРТЕЖ": 3507,
      "НОВОЕ": 3508,
      "КИРОВА": 3509,
      "БОК": 3510,
      "НАН": 3511,
      "МОСТО": 3512,
      "ТЕЛЬНАЯ": 3513,
      "ЮНИ": 3514,
      "ФУНДА": 3515,
      "ВЫЯВЛЕНИЯ": 3516,
      "ЛОВЕ": 3517,
      "ГЛЯ": 3518,
      "ЗАГЛУ": 3519,
      "РУЮЩИЙ": 3520,
      "СТАЦИОНА": 3521,
      "ЯЩАЯСЯ": 3522,
      "ГИН": 3523,
      "БЕЛЫ": 3524,
      "СТРОИТЕЛЬСТВОМ": 3525,
      "SIA": 3526,
      "ХЛЕБПРОМ": 3527,
      "СПЕКТ": 3528,
      "DDR": 3529,
      "ИЛЬ": 3530,
      "ВИЖ": 3531,
      "ЦИР": 3532,
      "ПРЕТЕН": 3533,
      "КОПЧЕ": 3534,
      "РЕСПУБЛИКА": 3535,
      "ТЕХНОЛОГИ": 3536,
      "ЭЛЕКТРИЧЕСКИЕ": 3537,
      "ЛАТУ": 3538,
      "ПРОТЕ": 3539,
      "РОДА": 3540,
      "ОСНА": 3541,
      "ПРЕДОСТАВЛЕНИЕ": 3542,
      "БЕНЗО": 3543,
      "КОМПОНЕНТ": 3544,
      "ПЕРВОМАЙСКОГО": 3545,
      "ШКЛОВ": 3546,
      "LAD": 3547,
      "ЗАКУПКЕ": 3548,
      "ОПТИЧЕСКИЙ": 3549,
      "АЗС": 3550,
      "ЕВА": 3551,
      "ПРОХОД": 3552,
      "НЕТ": 3553,
      "ТИВНЫЙ": 3554,
      "ДИЗА": 3555,
      "ПЕРЕРАБОТ": 3556,
      "НАСТЕН": 3557,
      "АНАЛОГО": 3558,
      "РАЗМЕЩ": 3559,
      "ОЗИМОГО": 3560,
      "ПОГРАНИ": 3561,
      "ЧЕЛОВЕ": 3562,
      "INE": 3563,
      "МАСЛЯ": 3564,
      "КРЕМКО": 3565,
      "ЗАЗЕМ": 3566,
      "ИССЛЕДОВАНИЯ": 3567,
      "СВЕТЛОГОРСК": 3568,
      "РАСТА": 3569,
      "БЕЛТОПГАЗ": 3570,
      "УРОВНЯ": 3571,
      "РЕЗЕРВУ": 3572,
      "ИНЪЕКЦИЙ": 3573,
      "ЗЕЛЬ": 3574,
      "ХУ": 3575,
      "СТРОИТЕЛЬНОЙ": 3576,
      "НАДЛЕ": 3577,
      "LOG": 3578,
      "САМОКЛЕЯЩАЯСЯ": 3579,
      "СМОЛЕ": 3580,
      "РАСТЕНИЙ": 3581,
      "TION": 3582,
      "ЛИК": 3583,
      "ГОРЬКОГО": 3584,
      "БИОХИ": 3585,
      "ARZ": 3586,
      "ПАРТИЗА": 3587,
      "ЛЛЕР": 3588,
      "ЭЛЕКТРОСЕТЬ": 3589,
      "ПРОБ": 3590,
      "FE": 3591,
      "КАРТО": 3592,
      "СЪЕ": 3593,
      "ПОЛА": 3594,
      "МОМЕНТА": 3595,
      "БЫСТРО": 3596,
      "ДЕЗИНФЕКЦИИ": 3597,
      "КОПИ": 3598,
      "САЛ": 3599,
      "ОЦЕН": 3600,
      "ТОРГ": 3601,
      "ГЕРМА": 3602,
      "РИТ": 3603,
      "ОСУЩЕСТВЛЕ": 3604,
      "БЕЛТОПГАЗКОМПЛЕКТ": 3605,
      "НОВИЧИ": 3606,
      "БОРИСОВСКИЙ": 3607,
      "ПОК": 3608,
      "ВШИ": 3609,
      "РТ": 3610,
      "ШАХ": 3611,
      "ХАРАКТЕРИСТИКАМ": 3612,
      "РАССМАТРИВА": 3613,
      "ЕМКОСТЬ": 3614,
      "АППАРАТА": 3615,
      "ОКАЗАНИЯ": 3616,
      "ГАЗА": 3617,
      "ЧАТО": 3618,
      "ЦИОННОЕ": 3619,
      "ПРАВА": 3620,
      "КРАСИТЕЛЬ": 3621,
      "ГРУППА": 3622,
      "ДОКУМЕНТАХ": 3623,
      "УСТАНОВКЕ": 3624,
      "ШИРИНОЙ": 3625,
      "ОПОВЕЩЕНИЯ": 3626,
      "НОВОГРУ": 3627,
      "ПТО": 3628,
      "БУЛЬ": 3629,
      "ГОФРО": 3630,
      "СПЛА": 3631,
      "КОНВЕЙ": 3632,
      "КОМПЛЕКТНОЙ": 3633,
      "ВЕНТИЛЯТОР": 3634,
      "НОУТ": 3635,
      "ПРИЦЕП": 3636,
      "КАМЕРЫ": 3637,
      "ВЕДЕНИЯ": 3638,
      "ДОИ": 3639,
      "ТЕМПЕРАТУРЫ": 3640,
      "HQ": 3641,
      "ТЕХАРТ": 3642,
      "ДОСТОВЕРНОСТИ": 3643,
      "ТЕХАРТГРУП": 3644,
      "КОНТРОЛЬНЫЕ": 3645,
      "ПРОЦЕДУРЕ": 3646,
      "УДОБРЕ": 3647,
      "НОУТБУ": 3648,
      "БЮДЖЕ": 3649,
      "КАМЕР": 3650,
      "ПЕРСОНАЛА": 3651,
      "КОЗ": 3652,
      "ГРАД": 3653,
      "ИЗМЕРЕНИЙ": 3654,
      "INTEL": 3655,
      "РОК": 3656,
      "БАНКА": 3657,
      "РОГАЧЕ": 3658,
      "ПРЯМОГО": 3659,
      "СМОРГОНСКИЙ": 3660,
      "СУТСТВИ": 3661,
      "ЛОВАЯ": 3662,
      "ПЕРЕДВИЖ": 3663,
      "ТЕНДЕРНЫЙ": 3664,
      "TY": 3665,
      "ПОДАЧИ": 3666,
      "ЛАТ": 3667,
      "ПРОТИВ": 3668,
      "СЕТКА": 3669,
      "ОХРАНЫ": 3670,
      "ОТСРО": 3671,
      "ФАЙЛ": 3672,
      "ФОСФА": 3673,
      "ЩИТ": 3674,
      "УНИТАРНОГО": 3675,
      "ЭМУЛЬ": 3676,
      "ВИТЕБСКОЙ": 3677,
      "КОРМА": 3678,
      "КОММУНИКА": 3679,
      "СТВЕННО": 3680,
      "ЗАДАНИИ": 3681,
      "ВИНИ": 3682,
      "ПРЕМИКС": 3683,
      "ЭЛЕКТРОСЕТЬСТРОЙ": 3684,
      "СМЕТА": 3685,
      "НОВОРО": 3686,
      "ПОКО": 3687,
      "МАССА": 3688,
      "КОДОВ": 3689,
      "МУСКА": 3690,
      "МАРШРУТ": 3691,
      "ЮР": 3692,
      "РЕШЕ": 3693,
      "СЬЕ": 3694,
      "ПРУЖИ": 3695,
      "БАКТЕРИ": 3696,
      "ДЕНА": 3697,
      "АСФАЛЬТОБЕТОН": 3698,
      "МОНТАЖНЫЕ": 3699,
      "КАЖДО": 3700,
      "ВЕЩЕСТВ": 3701,
      "ВАРИАН": 3702,
      "ЭКСПЛУАТАЦИЮ": 3703,
      "ЗОНАЛЬНЫЙ": 3704,
      "ЭЛЕКТРОСНАБЖЕНИЯ": 3705,
      "ВНЕС": 3706,
      "ОХРАН": 3707,
      "АРТИ": 3708,
      "ЗИНА": 3709,
      "ДЕРЖАТЕЛЬ": 3710,
      "ГЕРМАНИЯ": 3711,
      "БАРЬ": 3712,
      "СЫРОВ": 3713,
      "БАРАНОВИЧСКОЕ": 3714,
      "ТАН": 3715,
      "LAS": 3716,
      "МОЮЩЕЕ": 3717,
      "СОПРО": 3718,
      "ENS": 3719,
      "ГРУНТОВ": 3720,
      "ДВОЙ": 3721,
      "СТОЙКА": 3722,
      "ЭЛЕКТРИЧЕСКИЙ": 3723,
      "ВЛАГО": 3724,
      "NADARZ": 3725,
      "ГОВЯ": 3726,
      "УТВЕР": 3727,
      "СТЕКЛА": 3728,
      "ВЫСОКОГО": 3729,
      "ПОЛУФАБРИКА": 3730,
      "УЛИЦ": 3731,
      "ЯЗЫ": 3732,
      "POL": 3733,
      "ДОКУМЕНТЫ": 3734,
      "ОБЩЕСТВЕННОГО": 3735,
      "НАРОД": 3736,
      "КИМ": 3737,
      "БРОЙЛЕРНАЯ": 3738,
      "НАВЕС": 3739,
      "ПРОИЗВОДСТВЕННЫХ": 3740,
      "ФЕРМЕНТ": 3741,
      "КУЛЬТУР": 3742,
      "ЦЕР": 3743,
      "МОЛОКА": 3744,
      "СЛОЙНАЯ": 3745,
      "СВАРО": 3746,
      "NADARZYN": 3747,
      "RUSSIA": 3748,
      "ГЦ": 3749,
      "МЕДИЦИНСКИХ": 3750,
      "УГЛЕ": 3751,
      "ДОПУСТИ": 3752,
      "ДЕРА": 3753,
      "РОБ": 3754,
      "БОМ": 3755,
      "КЛЮЧЕНИЕ": 3756,
      "ЦВЕТНАЯ": 3757,
      "ОБЕСПЕЧЕНИЕ": 3758,
      "ФИЛЬТ": 3759,
      "ЗИИ": 3760,
      "РАСХОДА": 3761,
      "ТИВНОГО": 3762,
      "РЕАЛИЗАЦИИ": 3763,
      "ЖЕЛДОР": 3764,
      "РФ": 3765,
      "ПОСЛЕДУ": 3766,
      "ЛЮК": 3767,
      "СЕЛЕКЦИИ": 3768,
      "ТИЧЕСКОЕ": 3769,
      "ОРИЕНТИР": 3770,
      "МКА": 3771,
      "ТОЧНАЯ": 3772,
      "МИНСКИЕ": 3773,
      "АВАРИ": 3774,
      "КОЛЕС": 3775,
      "ЗДРАВООХРАНЕНИЮ": 3776,
      "ПОЛНОМО": 3777,
      "ЛОГОТИ": 3778,
      "ДЕТАЛЕЙ": 3779,
      "ДЫХА": 3780,
      "ТИЗАЦИИ": 3781,
      "КОВСКАЯ": 3782,
      "СРЕДНЕ": 3783,
      "МОЗЫРЬ": 3784,
      "STER": 3785,
      "РЕГУЛЯ": 3786,
      "ТУБЕРКУЛЕЗ": 3787,
      "OO": 3788,
      "WI": 3789,
      "КЕР": 3790,
      "ГАЗОСНАБЖЕНИЕ": 3791,
      "КОЛОННА": 3792,
      "СТУП": 3793,
      "МИРА": 3794,
      "УПОР": 3795,
      "ТОРИЙ": 3796,
      "СОЕДИНЕНИЯ": 3797,
      "ЗОЛО": 3798,
      "СТРИ": 3799,
      "ТОВЫХ": 3800,
      "СТРАХО": 3801,
      "ЩИНА": 3802,
      "ПРИБОРОВ": 3803,
      "КОНДЕН": 3804,
      "МЕНЬ": 3805,
      "ДОПУСКАЮТСЯ": 3806,
      "ДОПОЛНИТЕЛЬНЫЕ": 3807,
      "СИЛОВОЙ": 3808,
      "ПЛАТЕЖА": 3809,
      "ВЫПУСКА": 3810,
      "ПЕТРИ": 3811,
      "ЗИЙ": 3812,
      "ПОЖАРЕ": 3813,
      "ВЛАЖ": 3814,
      "СЫРЬЯ": 3815,
      "ПЦР": 3816,
      "ИТА": 3817,
      "САСЫ": 3818,
      "ПОВЕРКА": 3819,
      "ЛИНИЙ": 3820,
      "ЛАКТИ": 3821,
      "ЖИТ": 3822,
      "ФЕРЕН": 3823,
      "СПЕЦИЙ": 3824,
      "ВКЛЮЧАЯ": 3825,
      "ГДА": 3826,
      "ЦИЛ": 3827,
      "ПРИЛОЖЕНИИ": 3828,
      "РОВОЧНЫЙ": 3829,
      "АРХИ": 3830,
      "CZ": 3831,
      "СОВПАДА": 3832,
      "МЕТАЛЛИЧЕСКИЕ": 3833,
      "СМОТРЕТЬ": 3834,
      "SAMS": 3835,
      "КОНДЕНСА": 3836,
      "ЗАМО": 3837,
      "ХОЗЯЙСТВА": 3838,
      "АНАЛИЗАТОР": 3839,
      "МОНИТОРИ": 3840,
      "SHAN": 3841,
      "КЦИЯ": 3842,
      "ЦИНА": 3843,
      "БАР": 3844,
      "СТЫЙ": 3845,
      "ПИТЬЕ": 3846,
      "РАБОЧИХ": 3847,
      "СВЕТОДИОДНЫЙ": 3848,
      "МОСКО": 3849,
      "TOR": 3850,
      "ЛУЧ": 3851,
      "ШАЯ": 3852,
      "СТАНКА": 3853,
      "ТЕПЛОСЕТЬ": 3854,
      "ОСЯ": 3855,
      "БЕЛЖЕЛДОР": 3856,
      "КОЛЕСО": 3857,
      "БЕЛЖЕЛДОРСНАБ": 3858,
      "QU": 3859,
      "МИНСКОЕ": 3860,
      "ПОТРЕБИТЕЛЬ": 3861,
      "ПИД": 3862,
      "ЙД": 3863,
      "ГЕО": 3864,
      "НАРУЖНОЙ": 3865,
      "ГИБРИДА": 3866,
      "КРС": 3867,
      "МОДЕРНИЗАЦИЕЙ": 3868,
      "БАКТЕРИА": 3869,
      "КАЛИНКО": 3870,
      "ДОЗ": 3871,
      "БУШКИНА": 3872,
      "ISO": 3873,
      "ОГРАЖДЕНИЯ": 3874,
      "НИЧИ": 3875,
      "СЕМ": 3876,
      "ГОРОДЕ": 3877,
      "ДЕЗИНФИЦИРУЮЩЕЕ": 3878,
      "БЯ": 3879,
      "ГП": 3880,
      "ЗАВОДА": 3881,
      "ОШ": 3882,
      "ПОНИ": 3883,
      "ФИРМЫ": 3884,
      "ПУТ": 3885,
      "ЩУЧИН": 3886,
      "ВВОД": 3887,
      "МЕТИЛ": 3888,
      "КРИСТАЛЛ": 3889,
      "ЛОГОТИПОМ": 3890,
      "ТИЧЕСКИХ": 3891,
      "ДИЗАЙ": 3892,
      "ИР": 3893,
      "ОТЕ": 3894,
      "ПРИНАДЛЕ": 3895,
      "РЕННАЯ": 3896,
      "ЩЕМУ": 3897,
      "РУЧНОЙ": 3898,
      "ВИДА": 3899,
      "ВОЗВЕДЕНИЕ": 3900,
      "ПРУЖА": 3901,
      "СКУЮ": 3902,
      "ВКЛЮЧЕ": 3903,
      "ГРАЖДАНСКОЙ": 3904,
      "ФУНГИЦИД": 3905,
      "ГОСУДАРСТВЕННАЯ": 3906,
      "СОВЕ": 3907,
      "ЦАМИ": 3908,
      "УСТАНОВОК": 3909,
      "СВЕТИЛЬНИ": 3910,
      "НАНЕСЕНИЕМ": 3911,
      "АБО": 3912,
      "САПО": 3913,
      "ХОМУ": 3914,
      "БИНЫ": 3915,
      "PRE": 3916,
      "SER": 3917,
      "УПОЛНОМО": 3918,
      "СОСТОЯНИЯ": 3919,
      "ШЛИФОВА": 3920,
      "УПОЛНОМОЧЕН": 3921,
      "ПЕНО": 3922,
      "ПРОТО": 3923,
      "МАЛИ": 3924,
      "КРЕПЛЕНИЕ": 3925,
      "ПЛОЩАДКИ": 3926,
      "МЕЙ": 3927,
      "ЛОТОК": 3928,
      "ЛЕНТЫ": 3929,
      "ЛОГИЧЕСКИХ": 3930,
      "ГАЗОВ": 3931,
      "СВЯЗЬ": 3932,
      "ИНЖЕНЕРНОЙ": 3933,
      "ЗЕЛЕНЫЙ": 3934,
      "КРОНШТЕЙН": 3935,
      "РАМИ": 3936,
      "ТОВЫЕ": 3937,
      "ВЫВОЗ": 3938,
      "ИЗОЛЯЦИИ": 3939,
      "ПОВЕРКЕ": 3940,
      "РЕЗЬБОЙ": 3941,
      "СИТУА": 3942,
      "НАЛАДКА": 3943,
      "БС": 3944,
      "ТЕРМИЧЕ": 3945,
      "ATION": 3946,
      "РОЛИК": 3947,
      "ВАЛА": 3948,
      "ОТДЕЛ": 3949,
      "HY": 3950,
      "ЧИКИ": 3951,
      "ФЕКТ": 3952,
      "ПЕРФО": 3953,
      "ЗАПРА": 3954,
      "ЛАМПА": 3955,
      "МЕШКИ": 3956,
      "ГОФРИРОВАННОГО": 3957,
      "SAMSUNG": 3958,
      "ЧЕРИ": 3959,
      "ДОЛЖНО": 3960,
      "ГРАНИТ": 3961,
      "ТНПА": 3962,
      "ЭТАЖА": 3963,
      "СОХРАН": 3964,
      "ПАВ": 3965,
      "ЦЕНА": 3966,
      "СПЕН": 3967,
      "ЖЕЛЕЗИ": 3968,
      "ЗИРОВАННАЯ": 3969,
      "ДЕКОРА": 3970,
      "ПОДВЕС": 3971,
      "ПЕРВИЧ": 3972,
      "ДВИГАТЕЛЬ": 3973,
      "МОЙКИ": 3974,
      "СОСТАВЛЕННОЙ": 3975,
      "ЗЕЛЕН": 3976,
      "НОВИЧА": 3977,
      "МЫЙ": 3978,
      "АУДИТОРСКОГО": 3979,
      "ШАР": 3980,
      "ДРУЖ": 3981,
      "КОММУНАЛЬНОГО": 3982,
      "ССЫ": 3983,
      "ЛАМИНИ": 3984,
      "ИСПЫТАНИЯ": 3985,
      "SCH": 3986,
      "МАЧ": 3987,
      "ЗАМОРОЖЕННАЯ": 3988,
      "ХРО": 3989,
      "КОШЕ": 3990,
      "ГОСПИТА": 3991,
      "RON": 3992,
      "МОНТАЖОМ": 3993,
      "ПРЯМОЙ": 3994,
      "БЕЛСЕЛЬ": 3995,
      "БЕЛСЕЛЬЭЛЕКТРОСЕТЬСТРОЙ": 3996,
      "НАГРУЗКА": 3997,
      "ФТИ": 3998,
      "БРЮКИ": 3999,
      "ПРОТРА": 4000,
      "ИСПОЛЬЗОВАНИЕ": 4001,
      "ПРИЛАГАЕТСЯ": 4002,
      "ОСВЕЩЕНИЯ": 4003,
      "ДИАГНОСТИКИ": 4004,
      "SOL": 4005,
      "МАНО": 4006,
      "ПОДКЛЮЧЕНИЯ": 4007,
      "ДВЕРЕЙ": 4008,
      "ШТУКАТУР": 4009,
      "МАСТЕР": 4010,
      "СОДЕРЖАЩИЙ": 4011,
      "ЗАКАЗЧИК": 4012,
      "ПРОГРАМ": 4013,
      "ДНЯ": 4014,
      "ОДНОРАЗОВЫЕ": 4015,
      "ГАРИНА": 4016,
      "ВОЙСКО": 4017,
      "HP": 4018,
      "МФУ": 4019,
      "СБОРА": 4020,
      "ЩУЮ": 4021,
      "ТКОЙ": 4022,
      "ТЕХНИКА": 4023,
      "BIEL": 4024,
      "ОБЕЗЖЕЛЕЗИ": 4025,
      "КАДА": 4026,
      "ОРШАНСКИЙ": 4027,
      "СЕРВЕР": 4028,
      "АУДИТОРСКИЕ": 4029,
      "ВГНГ": 4030,
      "КОРИЧНЕ": 4031,
      "БАБУШКИНА": 4032,
      "COR": 4033,
      "МАТОЛОГИИ": 4034,
      "НОВОПОЛОЦК": 4035,
      "EFELD": 4036,
      "BIELEFELD": 4037,
      "ПРИВОДА": 4038,
      "СЕНИ": 4039,
      "КАЛЕН": 4040,
      "СЕРВИСНОЙ": 4041,
      "КАССЕ": 4042,
      "ОТКЛО": 4043,
      "CERA": 4044,
      "GHAI": 4045,
      "SHANGHAI": 4046,
      "ЛОГА": 4047,
      "СЫВОРО": 4048,
      "KEY": 4049,
      "ОБЕЗЖЕЛЕЗИВАНИЯ": 4050,
      "ЧРЕЗ": 4051,
      "ГАГАРИНА": 4052,
      "ЕНТА": 4053,
      "СЕКТИ": 4054,
      "ПЛЕМ": 4055,
      "ПЕРЕДАЧИ": 4056,
      "УСТРОЙСТВ": 4057,
      "ПЛИТКА": 4058,
      "ГРЯЗ": 4059,
      "БЕЛАРУСКА": 4060,
      "PA": 4061,
      "НЕОБХОДИМЫХ": 4062,
      "ПОДА": 4063,
      "ISE": 4064,
      "РЕГУЛИРОВАНИЯ": 4065,
      "АЭС": 4066,
      "МЕСТА": 4067,
      "ОТСУТСТВИ": 4068,
      "НЕОБХОДИМОСТИ": 4069,
      "ПРЕДЛОЖЕНИЯ": 4070,
      "ПНЕВМА": 4071,
      "ЕЦ": 4072,
      "КУБ": 4073,
      "ЛЯМИ": 4074,
      "БЕЛТАМОЖ": 4075,
      "СОПРОВО": 4076,
      "СТВЕННЫЕ": 4077,
      "СУШЕ": 4078,
      "ЧАСТИЦ": 4079,
      "МЕТАЛЛИЧЕСКИХ": 4080,
      "САПОГИ": 4081,
      "БЕЛТАМОЖСЕРВИС": 4082,
      "ТЕЛЬНЫХ": 4083,
      "МОЛОЧНО": 4084,
      "КОМПЛЕКТУЮЩИХ": 4085,
      "СЭ": 4086,
      "ГОДУ": 4087,
      "ТАБЛИ": 4088,
      "РОВСКОГО": 4089,
      "ПЕРЕЧ": 4090,
      "КОРПУСЕ": 4091,
      "ДРУГИ": 4092,
      "NI": 4093,
      "ФОРМО": 4094,
      "ЗАДВИЖКА": 4095,
      "КЛАССИ": 4096,
      "КЛАВИА": 4097,
      "ВИТЕБСКОГО": 4098,
      "ЖИДКОСТЬ": 4099,
      "ОВОЩ": 4100,
      "MICRO": 4101,
      "ПРЕДОХРА": 4102,
      "ПЛАСТИН": 4103,
      "ЛИЦЕНЗИЯ": 4104,
      "ПУНКТА": 4105,
      "ПРИГОТО": 4106,
      "ГЕНЕРАТОР": 4107,
      "ЧЕРЕЗ": 4108,
      "КАБИНЕ": 4109,
      "ТАРА": 4110,
      "БЕРЕСТОВИ": 4111,
      "СООРУЖЕНИЯ": 4112,
      "ОРЕХ": 4113,
      "ПОЛИАМИДНАЯ": 4114,
      "ИЛЬИ": 4115,
      "ЧЕВО": 4116,
      "ХИРУРГИЧЕСКИЙ": 4117,
      "СУХОЙ": 4118,
      "ШАЙБА": 4119,
      "ДЕНТ": 4120,
      "МАСТИ": 4121,
      "НАКОНЕЧНИК": 4122,
      "ВАТЫ": 4123,
      "ТАБЛЕ": 4124,
      "ДАВЛЕНИЕ": 4125,
      "УЧАСТОК": 4126,
      "УНИВЕРСАЛЬНЫЙ": 4127,
      "МУЛЬТИСЕРВИСНОЙ": 4128,
      "МЕСЯЦЕВ": 4129,
      "РАДИ": 4130,
      "ТЕРЫ": 4131,
      "ПРЕССО": 4132,
      "ПРЕДОСТАВЛЯ": 4133,
      "ЛОПА": 4134,
      "НИКОВА": 4135,
      "ОШМЯ": 4136,
      "НТ": 4137,
      "ПЛАНИ": 4138,
      "БЫХО": 4139,
      "ЦИЛИНДР": 4140,
      "ИЛЬИЧА": 4141,
      "КОНЦЕ": 4142,
      "МЫЕ": 4143,
      "РАВ": 4144,
      "АБОНЕНТ": 4145,
      "ГБ": 4146,
      "ШАРОВЫЙ": 4147,
      "BRWINOW": 4148,
      "ДНК": 4149,
      "ПЛЯ": 4150,
      "ТАРУ": 4151,
      "ОБЛОЖ": 4152,
      "СТОТА": 4153,
      "ХРОМАТОГРАФИЧЕСКАЯ": 4154,
      "КИРПИ": 4155,
      "ТОЧНЫЙ": 4156,
      "ЗАЦИИ": 4157,
      "КОНДИТЕР": 4158,
      "РАССТОЯ": 4159,
      "СТЕКЛЯ": 4160,
      "ШТАМ": 4161,
      "ЗАГОТОВ": 4162,
      "МОГИЛЕВО": 4163,
      "АЛЕКСАН": 4164,
      "ЩЕЛО": 4165,
      "СТОЛИН": 4166,
      "ГЕНПОДРЯДНОЙ": 4167,
      "ДЕЙСТВУЮЩЕГО": 4168,
      "GL": 4169,
      "ФРЕ": 4170,
      "ТРАНЗИ": 4171,
      "ЯВЛЯ": 4172,
      "ЗАКУПА": 4173,
      "ФЛАКОН": 4174,
      "ВСЕХ": 4175,
      "СКИДЕЛЬСКИЙ": 4176,
      "NET": 4177,
      "ПОСТАВЛЯ": 4178,
      "ОБЯЗАТЕЛЬНОГО": 4179,
      "ЧЕРТЕЖА": 4180,
      "ОБЪЕДИНЕНИЕ": 4181,
      "КСО": 4182,
      "AU": 4183,
      "ПРАВОМ": 4184,
      "ТЕЛЕФОН": 4185,
      "ТРЕБОВАНИЯМИ": 4186,
      "СТОРОНЫ": 4187,
      "МЯС": 4188,
      "СТВОМ": 4189,
      "ЗАЩИТА": 4190,
      "CORE": 4191,
      "ITECH": 4192,
      "НИЖЕ": 4193,
      "РЕЧИЦА": 4194,
      "ЛОГИЧЕСКОЙ": 4195,
      "DMI": 4196,
      "КОЖАНЫЕ": 4197,
      "РЕГИСТРИРОВАННОЕ": 4198,
      "ЭКСПЕРТИЗЫ": 4199,
      "ДИТЕЛЕЙ": 4200,
      "ОЛИ": 4201,
      "ПОСТАВЩИ": 4202,
      "ПОЛНИТЕЛЯ": 4203,
      "НАЧА": 4204,
      "ПРИГЛА": 4205,
      "ICH": 4206,
      "ПРЕДУ": 4207,
      "БОБРУЙСКА": 4208,
      "ОДНОРАЗОВЫЙ": 4209,
      "ФРАН": 4210,
      "ВЫЧАЙ": 4211,
      "ЩИЕ": 4212,
      "ЧЕТЫРЕ": 4213,
      "ФУД": 4214,
      "ПИНСКАЯ": 4215,
      "МЯСОКОНСЕРВНЫЙ": 4216,
      "ПАРТИЯ": 4217,
      "ДЕТАЛИ": 4218,
      "САЛФЕ": 4219,
      "ЧРЕЗВЫЧАЙ": 4220,
      "ИНСЕКТИ": 4221,
      "МЕТРЫ": 4222,
      "САХАР": 4223,
      "ПОРОД": 4224,
      "ВОЧНЫЙ": 4225,
      "БАЗО": 4226,
      "ГОМЕЛЬОБЛ": 4227,
      "КУЗО": 4228,
      "ВГА": 4229,
      "ATH": 4230,
      "ОХЛАЖДЕНИЯ": 4231,
      "SN": 4232,
      "АГРОСЕРВИС": 4233,
      "ВДГ": 4234,
      "ГЛУБОКСКИЙ": 4235,
      "ВГАВМ": 4236,
      "ФИГУ": 4237,
      "ПРОЦЕССОР": 4238,
      "ВИТЕЛЬНЫЙ": 4239,
      "СОВПАДАЮЩИЙ": 4240,
      "РЕАБИЛИТАЦИИ": 4241,
      "АРТИКУ": 4242,
      "ЛЕЧЕНИЯ": 4243,
      "ПРИЕ": 4244,
      "СОДЕРЖАНИЕМ": 4245,
      "ГРУЗОВОЙ": 4246,
      "URO": 4247,
      "ПУСК": 4248,
      "ПОЛИУРЕ": 4249,
      "КРЫНКА": 4250,
      "ФИЛЬТРУ": 4251,
      "SDR": 4252,
      "ЛИЙ": 4253,
      "БОРУ": 4254,
      "БУРГ": 4255,
      "МЕЧЕВО": 4256,
      "ОСТРОМЕЧЕВО": 4257,
      "MP": 4258,
      "СПЛИТ": 4259,
      "ЯЩЕГО": 4260,
      "ПАМЯ": 4261,
      "НАПРЯЖЕНИЯ": 4262,
      "ИНВЕНТАРНЫМ": 4263,
      "РЕКЛА": 4264,
      "ЧНЫМИ": 4265,
      "ГОЙ": 4266,
      "СКРЕ": 4267,
      "ОРДЕНА": 4268,
      "ЦОВ": 4269,
      "ОБЛИ": 4270,
      "ВЫТЯ": 4271,
      "ALMAT": 4272,
      "ХЛЕБОПРОДУКТ": 4273,
      "VOST": 4274,
      "РСУ": 4275,
      "LL": 4276,
      "НОСИ": 4277,
      "РОВАНИЮ": 4278,
      "МЕЛ": 4279,
      "ПД": 4280,
      "ЗАГРЯЗ": 4281,
      "РАБОЧЕЕ": 4282,
      "КОМПЛЕКСНОМУ": 4283,
      "ТЕМНО": 4284,
      "ПОДОГРЕ": 4285,
      "ПОЛИЭТИЛЕНОВАЯ": 4286,
      "ИНЪЕК": 4287,
      "БАРЬЕР": 4288,
      "КОНТРОЛЬ": 4289,
      "АВАРИЙ": 4290,
      "ИЗМ": 4291,
      "ЦЕНТРИ": 4292,
      "РЕЖИМЕ": 4293,
      "HU": 4294,
      "ПЯТИ": 4295,
      "БРАС": 4296,
      "ЗАМЕНЕ": 4297,
      "РУЧКА": 4298,
      "ПОТРЕБЛЕ": 4299,
      "КОНКУРС": 4300,
      "ВЭД": 4301,
      "НОВОРОССИЙ": 4302,
      "ДЯТ": 4303,
      "ЕЖЕ": 4304,
      "ФЛАНЕЦ": 4305,
      "ОСТРОВЕ": 4306,
      "МЕСТИМОСТЬ": 4307,
      "ССОВ": 4308,
      "FLEX": 4309,
      "НАР": 4310,
      "ПОГРУЗЧИК": 4311,
      "ИНФРА": 4312,
      "РОССИЙ": 4313,
      "МЕДИЦИНСКИЕ": 4314,
      "ЛЬНОМУ": 4315,
      "ПОМЕЩЕНИЯМИ": 4316,
      "CBM": 4317,
      "CAN": 4318,
      "ГОСУДАРСТВЕННОЙ": 4319,
      "РОДИЛЬНЫЙ": 4320,
      "ДОРСТРОЙ": 4321,
      "ИФА": 4322,
      "ТЕТРА": 4323,
      "ЖЕВА": 4324,
      "КАРБО": 4325,
      "ДОКУМЕНТАЦИЕЙ": 4326,
      "ЯЩИХ": 4327,
      "АГРЕГАТ": 4328,
      "СВИНЕЙ": 4329,
      "BER": 4330,
      "POR": 4331,
      "ЗИМ": 4332,
      "МЫШЬ": 4333,
      "КЛАПАНА": 4334,
      "ЭЛЕКТРОДВИГАТЕЛЬ": 4335,
      "ПОЛОТНО": 4336,
      "КАЛЕНДАР": 4337,
      "ТРАНСПОРТ": 4338,
      "ЭКСПРЕСС": 4339,
      "НЕСВИЖ": 4340,
      "МД": 4341,
      "СОДЕРЖАНИЯ": 4342,
      "ЗАГЛУШКА": 4343,
      "ПЛЁ": 4344,
      "ДАЛЕЕ": 4345,
      "STAN": 4346,
      "ЮТ": 4347,
      "БЕЛАРУСБАНК": 4348,
      "LS": 4349,
      "ЯР": 4350,
      "ЗАКВА": 4351,
      "СОПРОТИ": 4352,
      "ПРЯМО": 4353,
      "МОЩНОСТЬЮ": 4354,
      "УРОЖА": 4355,
      "FR": 4356,
      "ТЕНТ": 4357,
      "ВОЗДУШНЫЙ": 4358,
      "ПЛ": 4359,
      "ОБЪЕКТОВ": 4360,
      "ВРЕМ": 4361,
      "ПАК": 4362,
      "РИСУ": 4363,
      "ПОДВЕ": 4364,
      "ПРОИЗВОДСТВЕ": 4365,
      "СООТВЕТСТВИЯ": 4366,
      "ПЕРЕВОЗКА": 4367,
      "ВРЕМЕНИ": 4368,
      "ЗИЯ": 4369,
      "III": 4370,
      "ПРАВ": 4371,
      "ЭТИКЕТКИ": 4372,
      "ЮБИ": 4373,
      "ЧАСТНОЕ": 4374,
      "ЧЕЛОВЕКА": 4375,
      "НАПОР": 4376,
      "НАХОД": 4377,
      "ОСЯХ": 4378,
      "GI": 4379,
      "КИЖЕВА": 4380,
      "ПРЕДОСТАВЛЕНИЕМ": 4381,
      "РЕМЕНЬ": 4382,
      "ТРУДО": 4383,
      "ДЕФЕКТ": 4384,
      "КОНВЕР": 4385,
      "КОРРЕ": 4386,
      "ВОЛС": 4387,
      "ОФОРМЛЕНИЕ": 4388,
      "КИЖЕВАТОВА": 4389,
      "ПРОМЫ": 4390,
      "МЕННОЙ": 4391,
      "ЛЬЧИ": 4392,
      "ЛАЗЕР": 4393,
      "ИНФРАСТРУКТУ": 4394,
      "BEL": 4395,
      "ЮЩУЮ": 4396,
      "БОГДА": 4397,
      "УКАЗАТЬ": 4398,
      "БЮДЖЕТНЫХ": 4399,
      "PT": 4400,
      "ТЕРОВ": 4401,
      "ПОЛИМЕРНЫЙ": 4402,
      "ALMATY": 4403,
      "СООО": 4404,
      "КРИЧЕ": 4405,
      "ТВОРО": 4406,
      "МЕБЕЛИ": 4407,
      "ERS": 4408,
      "ЗАЩИТНЫЙ": 4409,
      "БЕНЗИ": 4410,
      "ФРАХ": 4411,
      "ОБЛИСПОЛКОМА": 4412,
      "МОТОРНЫЙ": 4413,
      "BAS": 4414,
      "ЛЕНИНСКАЯ": 4415,
      "ДРОГИ": 4416,
      "СТРАН": 4417,
      "СОВАЯ": 4418,
      "УПРАВЛЕНИЮ": 4419,
      "ЛЯХО": 4420,
      "ЖДЫ": 4421,
      "НЮ": 4422,
      "ЭМ": 4423,
      "ЗАЖИ": 4424,
      "ПУТИ": 4425,
      "ХЛОР": 4426,
      "АЛЕКСАНДРОВА": 4427,
      "ИГРО": 4428,
      "ПРЕДМЕТА": 4429,
      "ЗАПОЛН": 4430,
      "ВЛЕНИИ": 4431,
      "РАСТВОРИ": 4432,
      "НАЦИОНАЛЬНЫЙ": 4433,
      "ТОЧНОЙ": 4434,
      "ЗАСЛО": 4435,
      "ЗАСТРОЙКА": 4436,
      "СЪЕМ": 4437,
      "ЧНЕН": 4438,
      "ILENT": 4439,
      "СТАБИЛИЗАТОР": 4440,
      "СКОРОСТЬ": 4441,
      "УПОЛНОМОЧЕННЫМ": 4442,
      "МЕЛИОРА": 4443,
      "БУДА": 4444,
      "ДИФ": 4445,
      "ШЕФ": 4446,
      "КУЛЬТУРА": 4447,
      "МИРТ": 4448,
      "УСИЛЕН": 4449,
      "ПАНЕЛЕЙ": 4450,
      "МАГИ": 4451,
      "ПУН": 4452,
      "ФАЗНЫЙ": 4453,
      "БУЛО": 4454,
      "ПСИХИ": 4455,
      "ЗАПЧАСТЬ": 4456,
      "НТУ": 4457,
      "ТИРА": 4458,
      "ПЛИТКИ": 4459,
      "КЛЕЕ": 4460,
      "КАРА": 4461,
      "ПОЛОВ": 4462,
      "ОЗДОРО": 4463,
      "ТОЛОГИИ": 4464,
      "СИТУАЦИЯМ": 4465,
      "ЧРЕЗВЫЧАЙНЫМ": 4466,
      "ЧКЕ": 4467,
      "ЖЕНИЕМ": 4468,
      "ТКЛУБ": 4469,
      "СОФТКЛУБ": 4470,
      "ПРЕДПРИНИМА": 4471,
      "ПРОДУКТА": 4472,
      "ЗУБРЕ": 4473,
      "ПРОЦЕССО": 4474,
      "СПОСО": 4475,
      "СМАЗКА": 4476,
      "KO": 4477,
      "KGS": 4478,
      "ИСПОЛЬ": 4479,
      "МАРТ": 4480,
      "НОР": 4481,
      "ЛИЯ": 4482,
      "ЛУК": 4483,
      "РОЗ": 4484,
      "РЕЖИМ": 4485,
      "СТАЛЬНЫЕ": 4486,
      "ПРИНИМА": 4487,
      "УПЛОТНИТЕЛЬНОЕ": 4488,
      "HE": 4489,
      "СТИРА": 4490,
      "РАЗЛИ": 4491,
      "ДОСТУП": 4492,
      "ЧЁТ": 4493,
      "ТРЕЙД": 4494,
      "ЖОДИНО": 4495,
      "ТРЕБУ": 4496,
      "ЦВЕТНОЙ": 4497,
      "ПИНСКИЙ": 4498,
      "ТЭЗ": 4499,
      "ВТУЛКИ": 4500,
      "ЧЕБ": 4501,
      "ПРИВАР": 4502,
      "ПОКОЛЕНИЯ": 4503,
      "ВОДОПРОВОД": 4504,
      "ТАМОЖЕН": 4505,
      "РАСТВОРА": 4506,
      "МОГИЛЁВ": 4507,
      "ИСПОЛЬЗУ": 4508,
      "КАБЕЛЬНОЙ": 4509,
      "СВОБО": 4510,
      "МАГИСТРА": 4511,
      "ВАСИЛИ": 4512,
      "ЗАЩИТНАЯ": 4513,
      "СЕРА": 4514,
      "МОГИЛЕВХИМВОЛОКНО": 4515,
      "НАЛАД": 4516,
      "ЭНДОСКОПИ": 4517,
      "ВОЛОКОННО": 4518,
      "PR": 4519,
      "CT": 4520,
      "РЕВО": 4521,
      "КРАСИ": 4522,
      "МОЛОДЕЧНЕН": 4523,
      "CMR": 4524,
      "ДИСПЕТ": 4525,
      "ФЛАКО": 4526,
      "ТИНГО": 4527,
      "ДРОГИЧИН": 4528,
      "ЛОГОЙ": 4529,
      "ЗВУ": 4530,
      "ЦИСТЕР": 4531,
      "КОТЛОВ": 4532,
      "НЕРЖАВЕЮЩАЯ": 4533,
      "ЗЕМЕЛЬНОМ": 4534,
      "РЕЗЕРВУА": 4535,
      "ДРУЖБА": 4536,
      "ИНСПЕ": 4537,
      "СУХИ": 4538,
      "ОТПРА": 4539,
      "ПОДСТАНЦИЯ": 4540,
      "КОРРО": 4541,
      "ОПИСАНИЕ": 4542,
      "НЕВРО": 4543,
      "ПЕРВОМАЙСКАЯ": 4544,
      "СТРИН": 4545,
      "БЕТОНА": 4546,
      "ANT": 4547,
      "НОВСКАЯ": 4548,
      "РАБОЧИЙ": 4549,
      "ПОЛИПРОПИЛЕНОВАЯ": 4550,
      "МЕБЕЛЬ": 4551,
      "РАЗБОР": 4552,
      "НОВСКОГО": 4553,
      "ДВЕРНЫХ": 4554,
      "CR": 4555,
      "МАНИ": 4556,
      "КАНАЛОВ": 4557,
      "ДОСТАВКЕ": 4558,
      "КОПЫЛЬ": 4559,
      "САНАТОРИЙ": 4560,
      "ЗУБРЕНОК": 4561,
      "ПРОФЕ": 4562,
      "СВЕТЛОГОРСКИЙ": 4563,
      "ОБРАБАТЫ": 4564,
      "ЭНД": 4565,
      "GEN": 4566,
      "ФРАК": 4567,
      "СТЕРИЛЬНЫЕ": 4568,
      "AGILENT": 4569,
      "НАКОПИ": 4570,
      "ЧПУ": 4571,
      "FA": 4572,
      "СХЕ": 4573,
      "ЧЕСКОЕ": 4574,
      "ПРОИЗВОДИТЕЛЬНОСТЬЮ": 4575,
      "СОЕДИНЕНИЕ": 4576,
      "БОЛЕЗ": 4577,
      "ЧАСОВ": 4578,
      "КОПЧЕНЫХ": 4579,
      "ЗАМОК": 4580,
      "ЖЕМ": 4581,
      "КР": 4582,
      "СМЕН": 4583,
      "АВТОМАТИЧЕСКАЯ": 4584,
      "КРУГЛО": 4585,
      "МНОГОФУНКЦИОНАЛЬНЫЙ": 4586,
      "ПОЛЕСЬЕ": 4587,
      "ПРИГОТОВЛЕНИЯ": 4588,
      "ПАРТИЯМИ": 4589,
      "ВАСИЛИШКИ": 4590,
      "ВНИМА": 4591,
      "ВНЕШНИЙ": 4592,
      "ДРИБИН": 4593,
      "МОГИЛЕВЕ": 4594,
      "ЮБИЛЕЙ": 4595,
      "ЩЕНИЕ": 4596,
      "МАШЕ": 4597,
      "MED": 4598,
      "ПОТОЛ": 4599,
      "ТОЧНЫХ": 4600,
      "СТОЙКОСТЬ": 4601,
      "ТУРБО": 4602,
      "ГИДРАВЛИЧЕСКИЙ": 4603,
      "ПРУЖИНА": 4604,
      "ПИНСКОЕ": 4605,
      "TEX": 4606,
      "OWER": 4607,
      "ГРУНТОВКА": 4608,
      "УТВЕРЖДЕН": 4609,
      "ЛАЙ": 4610,
      "СФЕ": 4611,
      "ПОКУПА": 4612,
      "СРОКОМ": 4613,
      "КОНКУРСНОЙ": 4614,
      "ТЕРМОУСАДО": 4615,
      "ВНИМАНИЕ": 4616,
      "РЕШЕНИЕ": 4617,
      "ГЛ": 4618,
      "ГИПСО": 4619,
      "КОНСОЛИ": 4620,
      "ШАРИ": 4621,
      "УДАЛЕНИЯ": 4622,
      "HDMI": 4623,
      "СТЕПЕН": 4624,
      "ALL": 4625,
      "НАРУЖНОГО": 4626,
      "МНОГОКВАРТИРНОГО": 4627,
      "ФАРМАЦИЯ": 4628,
      "ПРИБОР": 4629,
      "ПОЛОЦ": 4630,
      "МЕТАЛЛИЧЕСКАЯ": 4631,
      "ССУ": 4632,
      "ЛЕЧЕБ": 4633,
      "ТОКСИ": 4634,
      "ТЕРАПИ": 4635,
      "ИГЛА": 4636,
      "НАМО": 4637,
      "СКОЛЬ": 4638,
      "КОММУТАТОР": 4639,
      "МАКЕ": 4640,
      "ПИЛ": 4641,
      "KYO": 4642,
      "КЛИЧЕ": 4643,
      "FTL": 4644,
      "LOGITECH": 4645,
      "ГОТОВНОСТЬ": 4646,
      "ЭСКИ": 4647,
      "ПОЛИЭТИЛЕНА": 4648,
      "ГАБАРИТНЫЕ": 4649,
      "ВЬЕВ": 4650,
      "ЛЕВАЯ": 4651,
      "ПРЕДМЕ": 4652,
      "АВТОМАТ": 4653,
      "АПВ": 4654,
      "MINSK": 4655,
      "ЭЛАСТИ": 4656,
      "ВОЙСКОВАЯ": 4657,
      "FIL": 4658,
      "ОБОЛОЧКИ": 4659,
      "АДРЕС": 4660,
      "РАСХО": 4661,
      "ЗЕРНА": 4662,
      "КАП": 4663,
      "ПРЕДВАРИ": 4664,
      "USD": 4665,
      "МЕТАЛЛА": 4666,
      "ОПОРА": 4667,
      "ЧСКАЯ": 4668,
      "МЕТРИЧЕ": 4669,
      "ВИК": 4670,
      "КРАСО": 4671,
      "ОПЛАТЫ": 4672,
      "КОНТАК": 4673,
      "СПЕЦИИ": 4674,
      "НДЦ": 4675,
      "ФИЛА": 4676,
      "FF": 4677,
      "СДАЧЕЙ": 4678,
      "ГОРОДА": 4679,
      "СТЕЛЛАЖ": 4680,
      "ПАМЯТЬ": 4681,
      "KYOCERA": 4682,
      "ЭКСПЕРИ": 4683,
      "ТЬЯ": 4684,
      "ПСД": 4685,
      "БЫТ": 4686,
      "ТВ": 4687,
      "ПАСТА": 4688,
      "ЗАКОНОДАТЕЛЬСТВА": 4689,
      "ЛЕЛЬЧИ": 4690,
      "ШИВАНИЯ": 4691,
      "РАССТОЯНИЕ": 4692,
      "ЛИЦА": 4693,
      "ЭКСПЕРИМЕНТА": 4694,
      "ВЫСОКОЙ": 4695,
      "НАРУЖНЫЙ": 4696,
      "МАЛЬТО": 4697,
      "СЕЧЕНИИ": 4698,
      "СОЦИАЛИ": 4699,
      "БЕЛАРУСКАЛИЙ": 4700,
      "МЕСТО": 4701,
      "ECO": 4702,
      "ГЭ": 4703,
      "ОБЛИЦО": 4704,
      "НАТУРАЛЬНЫЙ": 4705,
      "ГНУ": 4706,
      "ЖЕННЫХ": 4707,
      "НИЗКО": 4708,
      "ОНКОЛОГИИ": 4709,
      "ХОМУТ": 4710,
      "СЕМЕ": 4711,
      "ХОЖДЕНИЯ": 4712,
      "ГОМЕЛЬСКОЙ": 4713,
      "ПОВА": 4714,
      "МЯСНОЙ": 4715,
      "ПОЛОЦК": 4716,
      "ГОСПИТАЛЬ": 4717,
      "КОЛЛЕДЖ": 4718,
      "ТЕРАПИИ": 4719,
      "ПАМ": 4720,
      "ПРОЛЕ": 4721,
      "УГОЛ": 4722,
      "ЛЮКС": 4723,
      "МБИ": 4724,
      "НАБОРЫ": 4725,
      "КИС": 4726,
      "ТИМ": 4727,
      "ШИНЫ": 4728,
      "ТОПЛИВА": 4729,
      "ЛИЦЕНЗИИ": 4730,
      "ПРИНТЕР": 4731,
      "GP": 4732,
      "ТОЛЬ": 4733,
      "ПЕРЕСЕЧЕНИИ": 4734,
      "КАРТРИД": 4735,
      "БОРОВЛЯ": 4736,
      "АРМАТУРА": 4737,
      "ЛИТА": 4738,
      "ДОЧЕР": 4739,
      "НЕМЕ": 4740,
      "ИНДИВИДУАЛЬНОГО": 4741,
      "ПРИЦЕ": 4742,
      "МАПИД": 4743,
      "ПОВЫШЕН": 4744,
      "СОДЕРЖИТ": 4745,
      "ЛАЯ": 4746,
      "ПОДЗЕМ": 4747,
      "ТОРЦЕ": 4748,
      "ПРЕДОСТАВЛЕНИЯ": 4749,
      "IPS": 4750,
      "ДЕКСТРИН": 4751,
      "ТИПУ": 4752,
      "СПИР": 4753,
      "КАДАСТРО": 4754,
      "SFP": 4755,
      "СМА": 4756,
      "ОБЪЕМОМ": 4757,
      "ATA": 4758,
      "ГАНЦЕ": 4759,
      "ПРАЙ": 4760,
      "CP": 4761,
      "ТЕПЛИ": 4762,
      "ТРАНСПОРТНО": 4763,
      "СЛУЧА": 4764,
      "ПОЖАРО": 4765,
      "ЛИЦЕ": 4766,
      "НЕО": 4767,
      "АРМИ": 4768,
      "НОС": 4769,
      "ПРАВИ": 4770,
      "КРАСКИ": 4771,
      "КОММУН": 4772,
      "МИНИМА": 4773,
      "СЛУЖБА": 4774,
      "ФРАХТ": 4775,
      "ВОДОЧНЫЙ": 4776,
      "ФИКАЦИЯ": 4777,
      "КОЛБАС": 4778,
      "ШЛАНГ": 4779,
      "ПРЕДОХРАНИТЕЛЬ": 4780,
      "ДЕНТИ": 4781,
      "ТЕКУЩЕМУ": 4782,
      "КОРЕ": 4783,
      "ПЕЧИ": 4784,
      "СТРОИТЕЛЬНЫЕ": 4785,
      "СОСТАВУ": 4786,
      "ИСПОЛЬЗОВАНИЕМ": 4787,
      "ОСТАЛЬНЫЕ": 4788,
      "НОВОПОЛОЦКАЯ": 4789,
      "АВТОМАТИЗИРОВАННОЙ": 4790,
      "УСТОЙЧИВО": 4791,
      "ГОВАЯ": 4792,
      "ПРОДО": 4793,
      "ОХЛАЖДЕН": 4794,
      "ПОЛИМЕРНАЯ": 4795,
      "БОГДАНОВИЧА": 4796,
      "СР": 4797,
      "АВТОМАТИЧЕСКИХ": 4798,
      "БАЛАН": 4799,
      "ГОЛ": 4800,
      "ПРОИЗВОДИТЕЛЯ": 4801,
      "ГЛАД": 4802,
      "ИЗОЛЯТОР": 4803,
      "МОГИЛЕВОБЛ": 4804,
      "ЛИДСКАЯ": 4805,
      "УБОРКЕ": 4806,
      "HL": 4807,
      "ГОМЕЛЕ": 4808,
      "ПОСУ": 4809,
      "ВАЕТСЯ": 4810,
      "ЕННОГО": 4811,
      "СТАЯ": 4812,
      "ТЕРМИНА": 4813,
      "УПАКОВАН": 4814,
      "ISI": 4815,
      "УКАЗАНИЕМ": 4816,
      "ЧАСТОТЫ": 4817,
      "ФАКТУ": 4818,
      "ВОРОТА": 4819,
      "БОВ": 4820,
      "СТАДИ": 4821,
      "ЭЛЕКТРОМАГНИ": 4822,
      "МЕХАНИЧЕСКИХ": 4823,
      "КЛАВИАТУРА": 4824,
      "PI": 4825,
      "КАЧЕСТВА": 4826,
      "КАЗЫ": 4827,
      "ГОВОЙ": 4828,
      "ЖЕК": 4829,
      "РЕАГЕНТ": 4830,
      "ПРОФИЛАКТИ": 4831,
      "ТОЛОЧИН": 4832,
      "CU": 4833,
      "МУСО": 4834,
      "УКП": 4835,
      "ПРЕДЫ": 4836,
      "БОЛЬНИЧНЫЙ": 4837,
      "ЛОГИЧЕСКОГО": 4838,
      "ГЕМАТОЛОГИЧЕСКОГО": 4839,
      "ДНОЙ": 4840,
      "СКОРИ": 4841,
      "СТРОИТЕЛЕЙ": 4842,
      "ВЕСЫ": 4843,
      "ЦЕЛЬНО": 4844,
      "ТЕЛЕЖКА": 4845,
      "ВИРУСА": 4846,
      "ДЕТСКОЙ": 4847,
      "КТР": 4848,
      "ИММУНОФЕРМЕНТ": 4849,
      "ЛЬНИКА": 4850,
      "ФАСОВ": 4851,
      "ЧЕРНАЯ": 4852,
      "ШТАММ": 4853,
      "ДЕПО": 4854,
      "ИСПРАВИТЕЛЬНОЕ": 4855,
      "ПСИХИАТРИ": 4856,
      "УПРО": 4857,
      "ВАЮЩЕГО": 4858,
      "ГОРЯЧЕГО": 4859,
      "МУСКАТНЫЙ": 4860,
      "PORT": 4861,
      "ВОЛКОВЫССКОЕ": 4862,
      "БЕТО": 4863,
      "РАЗДЕ": 4864,
      "МОЛОЧНАЯ": 4865,
      "МОТОРНОЕ": 4866,
      "ОВОЩНАЯ": 4867,
      "МАЛЬТОДЕКСТРИН": 4868,
      "СБ": 4869,
      "MW": 4870,
      "СКОП": 4871,
      "ВИНО": 4872,
      "ЖИР": 4873,
      "НАТЯ": 4874,
      "ТРАКТОР": 4875,
      "ГРУЗОПОДЪЕМНОСТЬ": 4876,
      "НОУТБУК": 4877,
      "УПТК": 4878,
      "АРМЕЙ": 4879,
      "КОРОНА": 4880,
      "РЕЛЬ": 4881,
      "ТЕЛЮ": 4882,
      "СИМ": 4883,
      "ВОЗДЕЙСТВИ": 4884,
      "ПРОМСТРОЙ": 4885,
      "СТЕРИЛИЗАЦИИ": 4886,
      "ГРОДНООБЛГАЗ": 4887,
      "КОМПАНИИ": 4888,
      "КОМО": 4889,
      "ПЕРЕКРЫТИЯ": 4890,
      "ТОВАРОВ": 4891,
      "ПОЛИМЕРНЫМ": 4892,
      "ИНФЕКЦИОННАЯ": 4893,
      "ЦКЕВИЧА": 4894,
      "ПРОФЕССИ": 4895,
      "РУК": 4896,
      "МИЦКЕВИЧА": 4897,
      "КАРТА": 4898,
      "ПРОВЕРКИ": 4899,
      "МЕЖДУНАРОД": 4900,
      "ДВИН": 4901,
      "ЗАЛА": 4902,
      "ТИКОВ": 4903,
      "СПЦ": 4904,
      "ПОЛОЦКИЙ": 4905,
      "АВТОМОБИЛЬНЫМ": 4906,
      "ОБСЛЕДОВАНИЕ": 4907,
      "ПОДДЕРЖ": 4908,
      "DO": 4909,
      "РЖА": 4910,
      "ПРОСПЕ": 4911,
      "ЖДЕНИЕМ": 4912,
      "ЩЕЕ": 4913,
      "ГОМЕЛЬЭНЕРГО": 4914,
      "КАРМА": 4915,
      "АККУМУЛЯТОРНАЯ": 4916,
      "НОВОГРУД": 4917,
      "СКОТА": 4918,
      "ПРИОБРЕТЕНИЕ": 4919,
      "ЗЕРНЫЙ": 4920,
      "ПОЛИГРАФИ": 4921,
      "ЛЕСНОЙ": 4922,
      "ВЫС": 4923,
      "РАБОЧЕЙ": 4924,
      "ПЛОЩАДКА": 4925,
      "ССЕЙ": 4926,
      "ВАРИАНТЫ": 4927,
      "СТУПЕН": 4928,
      "ХВА": 4929,
      "ОСУЩЕСТВЛЯЮЩЕЙ": 4930,
      "КАДАСТРОВЫМ": 4931,
      "ЦЕЛЬ": 4932,
      "ГОМЕЛЬСКОГО": 4933,
      "БЕЙ": 4934,
      "СТОГО": 4935,
      "МЧС": 4936,
      "CD": 4937,
      "GRA": 4938,
      "ИНФУ": 4939,
      "КАТЕТЕР": 4940,
      "МАШЕРОВА": 4941,
      "ФЛИ": 4942,
      "ИЗДАТЕЛЬ": 4943,
      "ZE": 4944,
      "НАРОВ": 4945,
      "РАЙАГРОСЕРВИС": 4946,
      "HI": 4947,
      "ВЕЖ": 4948,
      "INK": 4949,
      "ПРЕОБРАЗОВА": 4950,
      "ПРИКРЕПЛЕННОМ": 4951,
      "ИДЕНТИ": 4952,
      "ЛЕЦ": 4953,
      "ANG": 4954,
      "ПОДРОБ": 4955,
      "ЖДАНОВИЧИ": 4956,
      "ОТЕЧЕ": 4957,
      "МОДИ": 4958,
      "HD": 4959,
      "ФЕН": 4960,
      "БИРУ": 4961,
      "ФРУНЗЕН": 4962,
      "ССИОН": 4963,
      "ПОВЕРХНОСТЕЙ": 4964,
      "ТБО": 4965,
      "СКОР": 4966,
      "СЕРЕ": 4967,
      "ОРГАНИЧЕ": 4968,
      "ГОЛУ": 4969,
      "ЯЩЕГОСЯ": 4970,
      "ТЕКУЩЕГО": 4971,
      "ФОНА": 4972,
      "ЛЬМО": 4973,
      "ONIC": 4974,
      "КОНСЕРВАН": 4975,
      "ПРОФИЛАКТИКИ": 4976,
      "ГВОЗ": 4977,
      "ОРТО": 4978,
      "OX": 4979,
      "МЕНИ": 4980,
      "ОПТИ": 4981,
      "КОЛОД": 4982,
      "СРОКА": 4983,
      "НАИМЕНОВАНИЯ": 4984,
      "ПРЕДЛАГАЮ": 4985,
      "ПЕРЕГОВОРЫ": 4986,
      "СОГЛАСОВАН": 4987,
      "НАРОВЛЯ": 4988,
      "ПН": 4989,
      "НОМЕРОМ": 4990,
      "ЛИНА": 4991,
      "ЛЯР": 4992,
      "КОВКА": 4993,
      "ЗАВОДСКОГО": 4994,
      "LU": 4995,
      "MG": 4996,
      "ПОЯ": 4997,
      "МОНТАЖСТРОЙ": 4998,
      "БЕЛОВЕЖ": 4999,
      "ЧАСТОТА": 5000,
      "ЧТО": 5001,
      "ИНВОЙ": 5002,
      "ОКРАШЕН": 5003,
      "ФРУК": 5004,
      "ВАМ": 5005,
      "СЕЯ": 5006,
      "САХ": 5007,
      "ШАССИ": 5008,
      "ВНЕДРЕ": 5009,
      "АКАДЕМИЯ": 5010,
      "ДИАПА": 5011,
      "ЙНЫЕ": 5012,
      "РН": 5013,
      "ЭП": 5014,
      "РОТА": 5015,
      "КОМЕН": 5016,
      "ВНУТРЕННЯЯ": 5017,
      "АРТИКУЛ": 5018,
      "ГОРЕЦКИЙ": 5019,
      "ПРОНИЦАЕМАЯ": 5020,
      "ПРОФЕССИОНА": 5021,
      "ЗАРЯ": 5022,
      "ЛОГИЯ": 5023,
      "АТЛАН": 5024,
      "ЛК": 5025,
      "СПИН": 5026,
      "ПРОИЗВОДИТЕЛЬНОСТЬ": 5027,
      "НАГРЕВАТЕЛЬ": 5028,
      "ПОЛИУРЕТА": 5029,
      "МАНИПУ": 5030,
      "МЕТАЛЛУ": 5031,
      "НАХ": 5032,
      "ТАРИ": 5033,
      "СИИ": 5034,
      "STEM": 5035,
      "НОВСКИЙ": 5036,
      "ДОН": 5037,
      "ГУР": 5038,
      "BRA": 5039,
      "ДОЙ": 5040,
      "ПЛАСТИК": 5041,
      "КАМЕНЕ": 5042,
      "MER": 5043,
      "ЖНОСТИ": 5044,
      "ЧЕНИЕМ": 5045,
      "ШНУ": 5046,
      "ПРОМЕ": 5047,
      "СЕКЦИИ": 5048,
      "МЕДИЦИ": 5049,
      "ВНУТРЕННЕГО": 5050,
      "КОРИАН": 5051,
      "БАТАРЕЯ": 5052,
      "РЕКОМЕН": 5053,
      "СТИРО": 5054,
      "ИЗЫСКАНИЙ": 5055,
      "УЛЬТРА": 5056,
      "ЦЕПЬ": 5057,
      "MSZ": 5058,
      "РЕЗУЛЬТАТАМ": 5059,
      "ИЗОЛЯЦИЕЙ": 5060,
      "ИНДУК": 5061,
      "СЕТЕВОЙ": 5062,
      "КРАСНАЯ": 5063,
      "ВК": 5064,
      "ДНИ": 5065,
      "МИНЕРАЛЬНОЙ": 5066,
      "КАРТОФЕ": 5067,
      "КРАСНОАРМЕЙ": 5068,
      "СЕЧЕНИЯ": 5069,
      "СУЛЬФУ": 5070,
      "РОВАНИЕМ": 5071,
      "ХИМИЧЕСКИЙ": 5072,
      "ЦИФРОВОЙ": 5073,
      "ЧОК": 5074,
      "НОВЫМ": 5075,
      "БРЕСТСКОЙ": 5076,
      "ПРОГРАММНОЕ": 5077,
      "THER": 5078,
      "ГЛЯНЦЕ": 5079,
      "ОСТ": 5080,
      "ФОРМАТА": 5081,
      "УТЕПЛЕННЫЕ": 5082,
      "CZON": 5083,
      "MSZCZON": 5084,
      "КОНСУЛЬ": 5085,
      "СТОВ": 5086,
      "МИНГАЗ": 5087,
      "ЦИОННЫМ": 5088,
      "ITY": 5089,
      "ПОДЪЕМА": 5090,
      "SIEM": 5091,
      "ОТДЕЛО": 5092,
      "ПОВЫШЕНИЯ": 5093,
      "МЕХАНИ": 5094,
      "FCA": 5095,
      "ВХ": 5096,
      "ДОЧЕРНЕЕ": 5097,
      "ГАЗЕ": 5098,
      "AISI": 5099,
      "УКЛАД": 5100,
      "ФР": 5101,
      "РАЦИИ": 5102,
      "ЛЯХ": 5103,
      "ПРЕПАРАТА": 5104,
      "БАРАБА": 5105,
      "ESS": 5106,
      "ПРОЗРАЧНЫЙ": 5107,
      "НМ": 5108,
      "УПОТРЕБЛЕ": 5109,
      "АНАЛИЗАТОРОВ": 5110,
      "ФУНКЦИЙ": 5111,
      "ИСТОЧНИК": 5112,
      "СТЕПЕНЬ": 5113,
      "СОЦИАЛИСТИЧЕСКАЯ": 5114,
      "ТОЛЬКО": 5115,
      "ОДО": 5116,
      "СОЮ": 5117,
      "RT": 5118,
      "СУМ": 5119,
      "МАРКИРОВКИ": 5120,
      "ДВЕРНЫЕ": 5121,
      "ФАСОВАННЫЙ": 5122,
      "ЦИРКУЛЯ": 5123,
      "ЪЮ": 5124,
      "ВОЧНАЯ": 5125,
      "SW": 5126,
      "VAR": 5127,
      "ТРИКО": 5128,
      "ДВИЖЕНИЯ": 5129,
      "БУМАЖНЫЕ": 5130,
      "ОБСЛЕДОВАНИЯ": 5131,
      "УПАКОВОЧНАЯ": 5132,
      "ПОБЕДЫ": 5133,
      "АНАЛОГОВ": 5134,
      "БАРАНОВИЧСКИЙ": 5135,
      "ПРЕДЛОЖЕНИЕ": 5136,
      "СКОРИНЫ": 5137,
      "ОСТЕ": 5138,
      "СЭНД": 5139,
      "ЦИДЫ": 5140,
      "СКАВА": 5141,
      "ВЫГРУЗКИ": 5142,
      "ЦЕЛ": 5143,
      "МОГИЛЕВСКИЕ": 5144,
      "STI": 5145,
      "ROS": 5146,
      "ВИТЕБСКЭНЕРГО": 5147,
      "КОНДИЦИОНЕ": 5148,
      "РАСТАМОЖ": 5149,
      "МОДЕ": 5150,
      "ОРЛОВ": 5151,
      "ВЫБОРУ": 5152,
      "СЛОЯ": 5153,
      "ОРИЕНТИРОВОЧНАЯ": 5154,
      "ЗАПОРНЫЙ": 5155,
      "ВЕСТИЦИОННОЙ": 5156,
      "МЕДИЦИНЫ": 5157,
      "РП": 5158,
      "БОКС": 5159,
      "АППАРАТОВ": 5160,
      "КОМПЛЕКТАЦИЯ": 5161,
      "ИНАКТИ": 5162,
      "КАРД": 5163,
      "ИМУ": 5164,
      "ТОКАР": 5165,
      "СРЕДНЕГО": 5166,
      "ДВЕРЬ": 5167,
      "СТАБИЛИЗА": 5168,
      "ФУРГОН": 5169,
      "СЭНДВИЧ": 5170,
      "МАКА": 5171,
      "ГАРАНТИЯ": 5172,
      "ФАРМ": 5173,
      "БГУ": 5174,
      "НОМЕН": 5175,
      "ТИШКИ": 5176,
      "СОАО": 5177,
      "ЭКСКАВА": 5178,
      "ПОВЕРХНО": 5179,
      "ПРОЗРАЧНАЯ": 5180,
      "СУЛЬФАТ": 5181,
      "ВП": 5182,
      "ПРЯНОСТЕЙ": 5183,
      "ФИРМЕН": 5184,
      "TYPE": 5185,
      "КД": 5186,
      "ФУР": 5187,
      "ЧЕЧЕР": 5188,
      "ТЫМ": 5189,
      "ОТОПИ": 5190,
      "МАРКЕТИНГО": 5191,
      "РАСТАМОЖКА": 5192,
      "АВАН": 5193,
      "МПЗ": 5194,
      "ДОСКА": 5195,
      "КЦИЕЙ": 5196,
      "ГРУЗКЕ": 5197,
      "СМЕСИТЕЛЬ": 5198,
      "АРХИТЕ": 5199,
      "ЗРЕ": 5200,
      "ПОСТАВКОЙ": 5201,
      "КЛУБ": 5202,
      "ПАРАМЕТРОВ": 5203,
      "РЕЗНОЙ": 5204,
      "КОЛОДКА": 5205,
      "ВОЛОК": 5206,
      "УЗЛА": 5207,
      "ПЕРСОНА": 5208,
      "ОСТАНО": 5209,
      "ИЗВЕ": 5210,
      "STONE": 5211,
      "ОКТЯБРЯ": 5212,
      "ДРЕВЕ": 5213,
      "ЗАГУСТИТЕЛЬ": 5214,
      "КОМПРЕССОРА": 5215,
      "ИТАЛИЯ": 5216,
      "ДИТЕЛЬ": 5217,
      "БАШ": 5218,
      "БЫТОВОГО": 5219,
      "ЮНИФУД": 5220,
      "СЕЛ": 5221,
      "ВОЗВРА": 5222,
      "ШЕСТИ": 5223,
      "СТЕРИЛИЗА": 5224,
      "ХРАНЕНИИ": 5225,
      "ЖИВОТНЫХ": 5226,
      "ТВЕРДЫХ": 5227,
      "GU": 5228,
      "СЫР": 5229,
      "СВИСЛО": 5230,
      "MUL": 5231,
      "ЯН": 5232,
      "СОСНО": 5233,
      "ВЫХОДА": 5234,
      "НАИМЕНОВАНИЙ": 5235,
      "ДОСТАВКИ": 5236,
      "КОМСОМОЛА": 5237,
      "СРЕДНЯЯ": 5238,
      "ВОЛЬ": 5239,
      "СОСИ": 5240,
      "КОЛПА": 5241,
      "ХАРАКТЕРИСТИК": 5242,
      "УЧАСТКОВ": 5243,
      "ВОЛКОВЫСК": 5244,
      "НАНЕСЕНИЯ": 5245,
      "РАЦИЯ": 5246,
      "ПОДДЕРЖКА": 5247,
      "ZH": 5248,
      "ПОЛОТЕН": 5249,
      "ДВУХСТОРОН": 5250,
      "ПЭВМ": 5251,
      "КАЛЕНДАРНЫХ": 5252,
      "ПОЛЬЗОВАНИЯ": 5253,
      "ККС": 5254,
      "ТОМА": 5255,
      "ПРЕПАРАТИВНОЙ": 5256,
      "ECK": 5257,
      "ПРЕДЫН": 5258,
      "СУЛЬФУРОН": 5259,
      "ДВА": 5260,
      "СЕВЕР": 5261,
      "ЦЕПИ": 5262,
      "РАЗРАБОТКУ": 5263,
      "ЧЕРТЕЖУ": 5264,
      "ГОЛОВКА": 5265,
      "КЛЫ": 5266,
      "ПОГРУ": 5267,
      "ОБСЛЕДОВАНИЮ": 5268,
      "МОЛОДЕЧНО": 5269,
      "UP": 5270,
      "АЗО": 5271,
      "ЯЧЕЙ": 5272,
      "НИКЕ": 5273,
      "КРАСНОГО": 5274,
      "ХЛОПЧАТО": 5275,
      "ТИЕ": 5276,
      "ТЫХ": 5277,
      "АКУ": 5278,
      "ДЕФЕК": 5279,
      "ВОЙНЫ": 5280,
      "ПРОИЗВОДСТВУ": 5281,
      "ОБРАТНЫМ": 5282,
      "АНТИТЕ": 5283,
      "КОТО": 5284,
      "ТЕСТА": 5285,
      "ПЕЙ": 5286,
      "МОНТАЖНЫЙ": 5287,
      "ОБЩЕГО": 5288,
      "ПЕЧАТА": 5289,
      "УЗЛОВ": 5290,
      "АЛЮМИНИЕВАЯ": 5291,
      "БЕЛЬЯ": 5292,
      "ВАРЕНЫХ": 5293,
      "ЦИЛИНДРИЧЕ": 5294,
      "ОПС": 5295,
      "QING": 5296,
      "ОБЪЁМ": 5297,
      "ВИТРА": 5298,
      "ПОДЛЕ": 5299,
      "ДЕЙСТВУЮЩЕЕ": 5300,
      "АГРЕГАТА": 5301,
      "ШПИ": 5302,
      "ТИИ": 5303,
      "IM": 5304,
      "ВОПРО": 5305,
      "НЕДЕ": 5306,
      "СТАРО": 5307,
      "КОРМ": 5308,
      "ПРИМЕНЕНИЕМ": 5309,
      "РЕЕСТРЕ": 5310,
      "ВТОТРАНС": 5311,
      "ТИПОГРАФИ": 5312,
      "БИТУМ": 5313,
      "ИЗГОТОВИТЕЛЬ": 5314,
      "АРОМАТИЗАТОРЫ": 5315,
      "НОВОРОССИЙСК": 5316,
      "ДИАГНОСТИЧЕСКИЙ": 5317,
      "СОЛНЕ": 5318,
      "СОВЕТА": 5319,
      "GR": 5320,
      "ДЕКАБ": 5321,
      "ПАТРО": 5322,
      "ШИРО": 5323,
      "СЫВОРОТ": 5324,
      "КАЛИНКОВИЧСКИЙ": 5325,
      "ТАБЛЕТКИ": 5326,
      "ИМУЩЕ": 5327,
      "ПУХО": 5328,
      "МАЛОРИТ": 5329,
      "РЫЧА": 5330,
      "ГРАФ": 5331,
      "УЛИЦЫ": 5332,
      "БАРАНОВИЧСКАЯ": 5333,
      "КАЛЬЦИЯ": 5334,
      "КОБРИН": 5335,
      "СТОЛО": 5336,
      "ЖАБИНКОВСКИЙ": 5337,
      "СТАВКУ": 5338,
      "СОРТИ": 5339,
      "ТИВНОЕ": 5340,
      "ДРОЖ": 5341,
      "CAT": 5342,
      "ВРЕМЕН": 5343,
      "ПРУЖ": 5344,
      "СЫРА": 5345,
      "ЧЕРНО": 5346,
      "ИНСТРУМЕНТ": 5347,
      "DAO": 5348,
      "АТЛАНТ": 5349,
      "ISCO": 5350,
      "МАТОЛОГИЧЕСКИЙ": 5351,
      "ИНЖЕНЕРНЫЕ": 5352,
      "ОТЕЧЕСТВЕННОЙ": 5353,
      "ЗАБО": 5354,
      "CAR": 5355,
      "РНО": 5356,
      "ШЕК": 5357,
      "АВТОМОБИЛЬНОЙ": 5358,
      "ХЛОПОК": 5359,
      "ИЗГОТОВЛЕНИЮ": 5360,
      "РАСПОЛОЖЕННЫХ": 5361,
      "БОЛЬШО": 5362,
      "УЧЕБНОГО": 5363,
      "ПРОЕКТИРОВАНИЕ": 5364,
      "АДАПТЕР": 5365,
      "ОСИПОВИЧИ": 5366,
      "ПОЛЬЕ": 5367,
      "КН": 5368,
      "МЕШОК": 5369,
      "СОВА": 5370,
      "ПОДКЛЮЧЕНИЕ": 5371,
      "ARK": 5372,
      "РУПП": 5373,
      "ЦЫПЛЯ": 5374,
      "КАЛИБРА": 5375,
      "МТФ": 5376,
      "OPT": 5377,
      "МУФТОВЫЙ": 5378,
      "ОТСРОЧКА": 5379,
      "MSZCZONOW": 5380,
      "КОМИС": 5381,
      "АНАЛИ": 5382,
      "DOW": 5383,
      "ПРИКА": 5384,
      "БАЛЬ": 5385,
      "РЕММОНТАЖСТРОЙ": 5386,
      "BLACK": 5387,
      "ШАРОВОЙ": 5388,
      "ЗАГУСТИ": 5389,
      "АВИАЦИИ": 5390,
      "ГОН": 5391,
      "ПОС": 5392,
      "МЕТРИ": 5393,
      "ТЕЛЯМИ": 5394,
      "КВАРТИРНЫЙ": 5395,
      "УНИВЕРСАЛЬНАЯ": 5396,
      "ЧЕТЫРЕХ": 5397,
      "КОРИАНДР": 5398,
      "ВИТЕБСКЕ": 5399,
      "АВТОМОБИЛЬНЫХ": 5400,
      "ТРЕБОВАНИЙ": 5401,
      "СДА": 5402,
      "ДЕКЛА": 5403,
      "ВЛЕННЫЙ": 5404,
      "СТРОИТЕЛЬСТВУ": 5405,
      "НАЛАДОЧНЫХ": 5406,
      "ТРИКОТАЖ": 5407,
      "OH": 5408,
      "БЕЛКАРД": 5409,
      "СЕЛЕК": 5410,
      "ЁМ": 5411,
      "УЧАСТИ": 5412,
      "ОСНОВНОГО": 5413,
      "БАРАБАН": 5414,
      "ЖИЛИЩНОГО": 5415,
      "ЗАГОТОВКИ": 5416,
      "ИНАКТИВИ": 5417,
      "CLE": 5418,
      "СИОН": 5419,
      "ПОКРЫТИЙ": 5420,
      "РОВОЧНАЯ": 5421,
      "ВЛЕННОГО": 5422,
      "LTL": 5423,
      "ПЛАНШЕ": 5424,
      "ГЛЮКОЗЫ": 5425,
      "МН": 5426,
      "CC": 5427,
      "ЭЛ": 5428,
      "ОБОРУДОВАНИЕМ": 5429,
      "ЭКОНОМИЧЕ": 5430,
      "ВЫЧИ": 5431,
      "ЖЕНИЮ": 5432,
      "ИНЫХ": 5433,
      "ДИСКИ": 5434,
      "ЗАЩИТНЫМ": 5435,
      "ПИСЬМОМ": 5436,
      "СВЕРЛО": 5437,
      "ОГНЕУПОР": 5438,
      "ТРАНСПОРТИРОВКИ": 5439,
      "ТРАНСПОРТИРОВКЕ": 5440,
      "ТЕХНОЛОГИЙ": 5441,
      "РАЙПО": 5442,
      "ЗНАК": 5443,
      "WA": 5444,
      "ДНЕВ": 5445,
      "УТИ": 5446,
      "ТИРУ": 5447,
      "ВЕРХНЕ": 5448,
      "СЕРТИФИКАТ": 5449,
      "ПРУЖИН": 5450,
      "ЛЕР": 5451,
      "МОЛОЧНОЙ": 5452,
      "МОНИТОРИНГА": 5453,
      "СНИ": 5454,
      "ПОТОЛО": 5455,
      "ВЫСШИ": 5456,
      "СЕП": 5457,
      "СТЕРИЛЬНЫЙ": 5458,
      "ЛИТРОВ": 5459,
      "УВЕЛИ": 5460,
      "ПОСТОЯ": 5461,
      "МИИ": 5462,
      "СНОМУ": 5463,
      "СЫП": 5464,
      "СЧЕТЧИКОВ": 5465,
      "УНИВЕРСАЛ": 5466,
      "ПРОБИРКИ": 5467,
      "SIEMENS": 5468,
      "НОМЕНКЛА": 5469,
      "СЫВОРОТКЕ": 5470,
      "ЖОДИН": 5471,
      "КПП": 5472,
      "ЛИФТА": 5473,
      "ТОНЕР": 5474,
      "БЕСКО": 5475,
      "ПЛЕН": 5476,
      "ПОЛИВИНИ": 5477,
      "МСТИ": 5478,
      "СТРОЕНИЯ": 5479,
      "КАЛИНИНА": 5480,
      "ДНО": 5481,
      "КИРОВ": 5482,
      "ЖИРА": 5483,
      "END": 5484,
      "ДРЕНА": 5485,
      "СОХРАННОСТЬ": 5486,
      "ФТИЗИ": 5487,
      "LTD": 5488,
      "ВЫЧИСЛИ": 5489,
      "МОЧЕ": 5490,
      "ФИНИ": 5491,
      "РОВКОЙ": 5492,
      "ИНТЕРЕ": 5493,
      "ТЕКСТИ": 5494,
      "ЦЕНТРИФУ": 5495,
      "ЧЕРВЕН": 5496,
      "КВАРТАЛ": 5497,
      "БИРУЛИ": 5498,
      "ПОСТАНО": 5499,
      "LED": 5500,
      "ЭЛЕКТРИЧЕСКИХ": 5501,
      "ПРЯМОУГО": 5502,
      "БРОН": 5503,
      "УДЛИ": 5504,
      "РОС": 5505,
      "ПОН": 5506,
      "ТЕЛЬНЫЕ": 5507,
      "ТУШЕНИЯ": 5508,
      "МЫВА": 5509,
      "КЛИМА": 5510,
      "РЕЗИНОВЫЕ": 5511,
      "БИОХИМИЧЕСКОГО": 5512,
      "АДМИНИСТРАТИВНО": 5513,
      "ПАССАЖИРСКИЙ": 5514,
      "ВХОДИ": 5515,
      "ВМЕСТИМОСТЬ": 5516,
      "ЛЛЕТ": 5517,
      "ТМГ": 5518,
      "КОЖУ": 5519,
      "АНТЕН": 5520,
      "ЖОМ": 5521,
      "ПУНКТ": 5522,
      "МЭ": 5523,
      "СВЕКЛЫ": 5524,
      "ДЮБЕЛЬ": 5525,
      "EPDM": 5526,
      "ПОВАРЕННАЯ": 5527,
      "ЛИНО": 5528,
      "ЖИРО": 5529,
      "ОРГАНИЗАЦИЯ": 5530,
      "ЛОН": 5531,
      "ПРОСЬ": 5532,
      "ДОКУМЕНТАЦИЯ": 5533,
      "СТАНЦИЙ": 5534,
      "ЕДИНИЦ": 5535,
      "КОАГ": 5536,
      "ПРОФИЛИ": 5537,
      "ФОРМУ": 5538,
      "ПЕРИО": 5539,
      "КОМБАЙНА": 5540,
      "ФТИЗИАТРИ": 5541,
      "КОСТЕЙ": 5542,
      "ФИКСИ": 5543,
      "ДОПОЛНИТЕЛЬНО": 5544,
      "СТАНДАРТ": 5545,
      "ОЗДОРОВИТЕЛЬНЫЙ": 5546,
      "КУЛЬТУРЫ": 5547,
      "РОСС": 5548,
      "ПРОЧНОСТЬ": 5549,
      "ЧАНИЕ": 5550,
      "КРЫШКИ": 5551,
      "БЛОКОМ": 5552,
      "КТУРЫ": 5553,
      "МИКРОРАЙОН": 5554,
      "ЧКАЛОВА": 5555,
      "КВАЛИ": 5556,
      "УПОТРЕБЛЕНИИ": 5557,
      "РЕМСТРОЙ": 5558,
      "ПРОИС": 5559,
      "ПОЛИСТИРО": 5560,
      "ДОРОГА": 5561,
      "ЗЕРКА": 5562,
      "КОММУНАЛЬНЫХ": 5563,
      "РАЗРАБОТКОЙ": 5564,
      "КОНОСА": 5565,
      "ПЭТ": 5566,
      "КОРОБКИ": 5567,
      "ВЗРЫ": 5568,
      "МУЖСКИЕ": 5569,
      "КОММУНТЕПЛОСЕТЬ": 5570,
      "ВЫСШИЙ": 5571,
      "ОВ": 5572,
      "KIT": 5573,
      "SL": 5574,
      "ЗАГОТО": 5575,
      "РАЙЖИЛКОМХОЗ": 5576,
      "ТРЕНА": 5577,
      "АНАЛИЗАТОРУ": 5578,
      "ПОРОШКО": 5579,
      "OT": 5580,
      "ФЛ": 5581,
      "СУП": 5582,
      "ЛАБОРАТОРИЯ": 5583,
      "GER": 5584,
      "ОРАН": 5585,
      "РАЗРАБОТА": 5586,
      "ПОДЪЕЗД": 5587,
      "АНАЛОГА": 5588,
      "ВТОРИ": 5589,
      "ЛОДЖИ": 5590,
      "ДОП": 5591,
      "ETHER": 5592,
      "КАРДА": 5593,
      "ПЛИНТУ": 5594,
      "ФОВ": 5595,
      "БЕСПЕРЕ": 5596,
      "ЖЕЛЕЗОБЕТОННЫХ": 5597,
      "ТИК": 5598,
      "НАСТРОЙ": 5599,
      "ТОКО": 5600,
      "ДОЗИ": 5601,
      "САДКА": 5602,
      "ЗИП": 5603,
      "ВОЗМОЖЕН": 5604,
      "QINGDAO": 5605,
      "МАРКСА": 5606,
      "ЛЕВЫЙ": 5607,
      "РЫНКА": 5608,
      "ИСПОЛНИТЕЛЯ": 5609,
      "ЖЕЛТЫЙ": 5610,
      "СБОРКИ": 5611,
      "ВСТРОЕННЫМИ": 5612,
      "FS": 5613,
      "ИООО": 5614,
      "ПОРА": 5615,
      "КОММЕР": 5616,
      "ЛОКОМО": 5617,
      "ЭЛЕКТРИЧЕСКАЯ": 5618,
      "АЛЮМИНИЕВОЙ": 5619,
      "КОНКУРСНЫХ": 5620,
      "БЕСПЕРЕБОЙ": 5621,
      "TB": 5622,
      "PV": 5623,
      "ПЛЕНИЕ": 5624,
      "МИКРОРАЙОНА": 5625,
      "ЕМЫМ": 5626,
      "КОЛОНИЯ": 5627,
      "ПРОФИЛАК": 5628,
      "ПРОСЬБА": 5629,
      "ГОРОДСКОЕ": 5630,
      "ХОЗЯЙСТВЕННОГО": 5631,
      "КРЮ": 5632,
      "РНА": 5633,
      "МОВА": 5634,
      "ПЛАНКА": 5635,
      "АВТОМАТИКИ": 5636,
      "ПРИЛОЖЕНИЕМ": 5637,
      "ПСВ": 5638,
      "ТРАНСФОРМАТОРНАЯ": 5639,
      "ОКРАСКИ": 5640,
      "РОГАТОГО": 5641,
      "СЕНТ": 5642,
      "ОДНОРАЗОВАЯ": 5643,
      "BUS": 5644,
      "НАСТО": 5645,
      "РЕГЛА": 5646,
      "ГОНА": 5647,
      "ФЕДЕРА": 5648,
      "СОВМЕСТИ": 5649,
      "АВТОМАТИЗАЦИИ": 5650,
      "ДОРОГ": 5651,
      "МЗШ": 5652,
      "КОАГУ": 5653,
      "АГАР": 5654,
      "ВСТАВКА": 5655,
      "ННЫМ": 5656,
      "НИТРИ": 5657,
      "ВЕСОМ": 5658,
      "МЕННОГО": 5659,
      "ЛОЖИН": 5660,
      "ТРАКТ": 5661,
      "ГРАНУЛИ": 5662,
      "ВЕТЕРИНАРНЫЙ": 5663,
      "ИНДИКАТОР": 5664,
      "ЛЬКА": 5665,
      "ПОРЯД": 5666,
      "МАРКЕТИНГОВЫЕ": 5667,
      "КОЛЯ": 5668,
      "МОГИЛЕВСКОГО": 5669,
      "ПРОДА": 5670,
      "ТОРАМИ": 5671,
      "УБОРОЧНОГО": 5672,
      "ОДЕЖДЫ": 5673,
      "БЕРЕЗОВСКИЙ": 5674,
      "ЛКЕ": 5675,
      "ПАЦИ": 5676,
      "БОРТОВОЙ": 5677,
      "ИНСЕКТИЦИД": 5678,
      "ПОЖАРОТУШЕНИЯ": 5679,
      "ПЯТ": 5680,
      "ХГ": 5681,
      "ИНТЕРНАЦИОНА": 5682,
      "АДМИНИСТРАТИВНОГО": 5683,
      "ПЯ": 5684,
      "ЧЕРЕ": 5685,
      "ЖДЕНИЮ": 5686,
      "ЮЩАЯСЯ": 5687,
      "ВРАЩЕНИЯ": 5688,
      "ЩЕННОЙ": 5689,
      "ПАССАЖИРСКИХ": 5690,
      "ДИСПЕР": 5691,
      "ФУНДАМЕНТ": 5692,
      "ДВОР": 5693,
      "ПОТЕН": 5694,
      "ДЕБ": 5695,
      "КОНВЕЙЕР": 5696,
      "ETHERNET": 5697,
      "ЛУКОМ": 5698,
      "ПОДЪЁМ": 5699,
      "МИНСККОММУНТЕПЛОСЕТЬ": 5700,
      "ЛУНИНЕЦ": 5701,
      "БЕЛОВЕЖСКИЙ": 5702,
      "GT": 5703,
      "МЕМБ": 5704,
      "ЦЕНТРО": 5705,
      "ГОТОВОЙ": 5706,
      "КРУПА": 5707,
      "ЛИФТ": 5708,
      "КРУПНОГО": 5709,
      "ПОВОРОТНЫЙ": 5710,
      "ИСПРАВИТЕЛЬНАЯ": 5711,
      "ЖНОГО": 5712,
      "ПЕНИ": 5713,
      "КОСМО": 5714,
      "ФИНАНСОВ": 5715,
      "СОЛИГОРСКАЯ": 5716,
      "СЕНТЯБ": 5717,
      "NING": 5718,
      "НЕНТЫ": 5719,
      "ШЕНИИ": 5720,
      "КОМПЕН": 5721,
      "ЗАГУСТИТЕЛИ": 5722,
      "АДРЕ": 5723,
      "СТЯМИ": 5724,
      "SIL": 5725,
      "УЛУЧ": 5726,
      "ЯТИЯ": 5727,
      "ЭЛЕКТРОПРИВОДОМ": 5728,
      "WINDOW": 5729,
      "ОРИГИНАЛ": 5730,
      "СЛУЖБЫ": 5731,
      "АБК": 5732,
      "СМАРТ": 5733,
      "ДАЛЬ": 5734,
      "СЕПАРА": 5735,
      "ШЕСТЕР": 5736,
      "ELEC": 5737,
      "ДЕТСКОГО": 5738,
      "ГРУЗОВЫХ": 5739,
      "ПРОСПЕКТУ": 5740,
      "ВЫСШЕГО": 5741,
      "МЕМБРАН": 5742,
      "ЛЕВОЙ": 5743,
      "ВОЛОЖИН": 5744,
      "БЛАГОУСТРОЙСТВА": 5745,
      "ШВЕЙ": 5746,
      "ЩЁ": 5747,
      "СОСУ": 5748,
      "САЙ": 5749,
      "ГЕМАТОЛОГИИ": 5750,
      "КРЕСЛО": 5751,
      "УЛЬТРАЗВУКОВОЙ": 5752,
      "ЛАТУННЫЙ": 5753,
      "ПОДРАЗ": 5754,
      "ФИЛЬТРЫ": 5755,
      "МАТЕРИАЛЬНЫХ": 5756,
      "ГРУЗКУ": 5757,
      "COL": 5758,
      "ЦКК": 5759,
      "КЗХ": 5760,
      "ФАСОВАННАЯ": 5761,
      "ПЕРЕРАБОТКИ": 5762,
      "AX": 5763,
      "ЛИЗОВАН": 5764,
      "ТОЧ": 5765,
      "КАНАЛА": 5766,
      "НАСОСОВ": 5767,
      "ЗАКАЗЧИКОМ": 5768,
      "WINDOWS": 5769,
      "КАРДИОЛОГИЧЕСКИЙ": 5770,
      "ЖНЫЕ": 5771,
      "ТЕБУ": 5772,
      "ЧЕРНОГО": 5773,
      "КАНАЛЬНЫЙ": 5774,
      "СПОСОБОМ": 5775,
      "БОЛЕЗНИ": 5776,
      "KV": 5777,
      "КОМИТЕТ": 5778,
      "ЭМАЛИ": 5779,
      "ГИЛЬ": 5780,
      "РАЗВИ": 5781,
      "ТОЛЩ": 5782,
      "САХАРА": 5783,
      "КОМПОНЕНТЫ": 5784,
      "ШПРИЦ": 5785,
      "ПОЛУФАБРИКАТ": 5786,
      "КРАСНОАРМЕЙСКАЯ": 5787,
      "ГГ": 5788,
      "ЛЮБА": 5789,
      "ПЛОМБИ": 5790,
      "ВОДОПРОВОДА": 5791,
      "MAG": 5792,
      "ПОДГОТОВКА": 5793,
      "БАЛАНСИ": 5794,
      "DF": 5795,
      "БРАГИН": 5796,
      "ICAL": 5797,
      "ПРОЧИ": 5798,
      "ДЕМОНТАЖ": 5799,
      "МЕТАЛЛ": 5800,
      "СОДЕРЖАНИЮ": 5801,
      "РИРОВАННЫЙ": 5802,
      "AIR": 5803,
      "ЦГЭ": 5804,
      "ЭУ": 5805,
      "КАПИТАЛЬНЫМ": 5806,
      "ФОНДА": 5807,
      "БЛАГОУСТРОЙСТВО": 5808,
      "WAT": 5809,
      "ТУБЕРКУЛЕЗНАЯ": 5810,
      "ЖЕРА": 5811,
      "ДЯТЛОВ": 5812,
      "ФРОН": 5813,
      "ОБНО": 5814,
      "ЧАС": 5815,
      "ПЕРЕПЛЕ": 5816,
      "ТРАХЕ": 5817,
      "АУДИТОРСКИХ": 5818,
      "КАЛИНКОВИЧИ": 5819,
      "ИГ": 5820,
      "СШ": 5821,
      "ЛУНИНЕ": 5822,
      "ИТОГО": 5823,
      "НАПОЛНИТЕЛЬ": 5824,
      "РИС": 5825,
      "КОНТРОЛЛЕР": 5826,
      "КОЛЬЦА": 5827,
      "МНОГОКВАРТИРНЫХ": 5828,
      "ЗАМЕНЫ": 5829,
      "ПРИМЕНЯЕТСЯ": 5830,
      "ЦЕНТРАЛЬНОГО": 5831,
      "ПРЕПАРАТОВ": 5832,
      "LEN": 5833,
      "MON": 5834,
      "POWER": 5835,
      "ЯХ": 5836,
      "ГИМ": 5837,
      "РОВАННОЕ": 5838,
      "STAR": 5839,
      "САМОХОД": 5840,
      "ЗАПЧАСТЕЙ": 5841,
      "КАТАЛОГУ": 5842,
      "БЛАГОУСТРОЙСТВОМ": 5843,
      "ВИТАМИ": 5844,
      "ХОДОВОЙ": 5845,
      "ШЕР": 5846,
      "АНТИБАКТЕРИА": 5847,
      "ЭНДОСКО": 5848,
      "CONT": 5849,
      "РОЗЕТКА": 5850,
      "СХЕМА": 5851,
      "VAC": 5852,
      "НИТИ": 5853,
      "ТОВАН": 5854,
      "СОЛО": 5855,
      "ПАРАМЕТРЫ": 5856,
      "ПРЯНОСТИ": 5857,
      "ACT": 5858,
      "СМОРГОНЬ": 5859,
      "ЧУГУННЫЙ": 5860,
      "ПОКРЫ": 5861,
      "ВАЛЬ": 5862,
      "КОНЦЕНТ": 5863,
      "АРЕНДО": 5864,
      "ПРИНТЕРА": 5865,
      "МАНЖЕТА": 5866,
      "OOD": 5867,
      "ХЛОПЧАТОБУМАЖ": 5868,
      "ГРОПРОМ": 5869,
      "УГОЛОК": 5870,
      "СПЕЦИАЛИЗИРОВАННОГО": 5871,
      "ОБУВИ": 5872,
      "ОЗУ": 5873,
      "РАССАСЫ": 5874,
      "СИЛИКОНО": 5875,
      "TEC": 5876,
      "СОБСТВЕННЫХ": 5877,
      "ОЧИСТКА": 5878,
      "ГЕНЕРАЛЬНОЙ": 5879,
      "ЗАКОНОДАТЕЛЬСТВОМ": 5880,
      "XL": 5881,
      "ЕСЛИ": 5882,
      "ЛОВЫЕ": 5883,
      "ДАНИЯ": 5884,
      "ХОТИМ": 5885,
      "КОММУНИ": 5886,
      "МКЛ": 5887,
      "ВИДЕТЕЛЬ": 5888,
      "ПОГРУЗЧИКА": 5889,
      "ПРЕДЫНВЕСТИЦИОННОЙ": 5890,
      "СПЕЦИАЛЬНЫЙ": 5891,
      "ПРОХО": 5892,
      "РЕННОЙ": 5893,
      "АНТИБИО": 5894,
      "ПОЛУЧЕНИЯ": 5895,
      "МЕХАНИЗМ": 5896,
      "ФРУНЗЕ": 5897,
      "KEYSTONE": 5898,
      "МАКС": 5899,
      "БУР": 5900,
      "ОЛ": 5901,
      "ВАЮЩИЕ": 5902,
      "ЗАХВА": 5903,
      "МИД": 5904,
      "ATE": 5905,
      "КАТЕТЕРЫ": 5906,
      "РАЗЪЕМ": 5907,
      "РЕНТГЕНО": 5908,
      "БРАСЛА": 5909,
      "САХАРНОЙ": 5910,
      "ДУБРОВ": 5911,
      "ЛЕПЕЛЬ": 5912,
      "ЕНЬ": 5913,
      "МАТЫ": 5914,
      "СТРОИТЕЛЬНОГО": 5915,
      "КВС": 5916,
      "КОНТРОЛЬНЫЙ": 5917,
      "ЭКСТРУ": 5918,
      "РЕЗЬБО": 5919,
      "УСТОЙЧИВОСТЬ": 5920,
      "ЩИК": 5921,
      "МЯСНЫХ": 5922,
      "ПУСКОНАЛАДОЧНЫЕ": 5923,
      "ПРОМЕЖУ": 5924,
      "ЛОВО": 5925,
      "СТОЛБЦО": 5926,
      "ММО": 5927,
      "СТУЛ": 5928,
      "МОМЕНТ": 5929,
      "ПЕРЕГОРОД": 5930,
      "КРАТНОГО": 5931,
      "КОМПОНЕН": 5932,
      "АРМАТУРЫ": 5933,
      "ЗАТВО": 5934,
      "ФАСОВКИ": 5935,
      "ВЕРХНЕДВИН": 5936,
      "КОМПЕНСА": 5937,
      "ND": 5938,
      "СПАР": 5939,
      "ЭКРАН": 5940,
      "СД": 5941,
      "ХМА": 5942,
      "ЧИСЛО": 5943,
      "УДОБРЕНИЙ": 5944,
      "ПОТЕНЦИА": 5945,
      "РД": 5946,
      "БЕЛКА": 5947,
      "ГОРОДСКОГО": 5948,
      "ЖИВАЯ": 5949,
      "ЦИНК": 5950,
      "ВЫСОТОЙ": 5951,
      "SYSTEM": 5952,
      "СНОГО": 5953,
      "НИТУРА": 5954,
      "ЛИРУ": 5955,
      "БУН": 5956,
      "ШКАФА": 5957,
      "СТОЙКОЙ": 5958,
      "СПЕЦИАЛИСТА": 5959,
      "ПРОТИВОПОЖА": 5960,
      "НИЖНЯЯ": 5961,
      "ОЦИНКОВАННАЯ": 5962,
      "МУЖСКОЙ": 5963,
      "НЕРА": 5964,
      "ЖИЙ": 5965,
      "БК": 5966,
      "КАНИ": 5967,
      "ИЗУЧ": 5968,
      "ЗОМ": 5969,
      "EXT": 5970,
      "ПАРОВОЙ": 5971,
      "БЕСПЕРЕБОЙНОГО": 5972,
      "NU": 5973,
      "РУЖА": 5974,
      "WD": 5975,
      "ЕМОСТЬ": 5976,
      "ВОСТО": 5977,
      "ЗАБОРА": 5978,
      "ИНТРА": 5979,
      "ПРЕССА": 5980,
      "ДАТЧИКА": 5981,
      "МАСЛЯНЫЙ": 5982,
      "ОДИН": 5983,
      "БЕРЕЗА": 5984,
      "ИМИ": 5985,
      "СТВОР": 5986,
      "ИСПА": 5987,
      "ТЕЛЯТ": 5988,
      "СОВЕТСКОЙ": 5989,
      "ДЕРЕВЯННЫХ": 5990,
      "ОСОБЕЙ": 5991,
      "УКАЗАННЫМИ": 5992,
      "ВЗРЫВО": 5993,
      "ПРЕДМЕТ": 5994,
      "КОМПЛЕКТОВ": 5995,
      "ТРАНСПОРТНАЯ": 5996,
      "КРОВЕЛЬНЫЙ": 5997,
      "ГРОМА": 5998,
      "ОТЛОЖ": 5999,
      "АККУМУЛЯ": 6000,
      "ПАТО": 6001,
      "КАРТЫ": 6002,
      "ГЕНЕРАТОРА": 6003,
      "РЕЗЬБА": 6004,
      "РАССМАТРИВАЕМ": 6005,
      "ТИНА": 6006,
      "ПИТАНИЕ": 6007,
      "ОКТЯБРЬСКОЙ": 6008,
      "МЕМ": 6009,
      "КЕРО": 6010,
      "МЕТАЛЛИЧЕСКОЙ": 6011,
      "ВАТЬСЯ": 6012,
      "ВЕНТИЛЬ": 6013,
      "ЗАЯВКЕ": 6014,
      "ИНФЕКЦИОННОГО": 6015,
      "ГОФРИРОВАННАЯ": 6016,
      "НАГРЕВА": 6017,
      "СХЕМЫ": 6018,
      "ОФСЕ": 6019,
      "ДИЗАЙН": 6020,
      "КАК": 6021,
      "ПРОД": 6022,
      "ПАШ": 6023,
      "СЕНА": 6024,
      "ЗАЯВКА": 6025,
      "КОМСОМОЛЬСКАЯ": 6026,
      "АБОНЕНТСКОГО": 6027,
      "RATION": 6028,
      "БИОП": 6029,
      "ЭНЕРГОС": 6030,
      "КАЧЕСТВЕ": 6031,
      "НАКОНЕЧНИКИ": 6032,
      "ГЕОДЕЗИЧЕСКИХ": 6033,
      "ККЕ": 6034,
      "ДИАГНОСТИКА": 6035,
      "KING": 6036,
      "ЕННЫМ": 6037,
      "ПЕРЕГОРОДОК": 6038,
      "ОБОГРЕ": 6039,
      "АНТИТЕЛ": 6040,
      "ТРУБКИ": 6041,
      "АЛЮМИНИЕВОГО": 6042,
      "ПРОКЛАДКИ": 6043,
      "КЛАПАНОМ": 6044,
      "СПЕЦСТРОЙ": 6045,
      "ОСУЩЕСТВЛЕНИЕМ": 6046,
      "ПОМОЩ": 6047,
      "КОММУНАРКА": 6048,
      "ЗНО": 6049,
      "НОСО": 6050,
      "НЕМУ": 6051,
      "ПОДВОД": 6052,
      "ОБРАТНЫЙ": 6053,
      "ВНУТРЕННИЕ": 6054,
      "КРЕПЛЕНИЕМ": 6055,
      "ЖИДКОСТИ": 6056,
      "ДЛИНОЙ": 6057,
      "ШОКОЛА": 6058,
      "ОБЯЗАТЕЛЬНО": 6059,
      "ПОЛИЭТИЛЕН": 6060,
      "РАБОЧИЕ": 6061,
      "МАШИНУ": 6062,
      "НЕМАН": 6063,
      "ХОККЕ": 6064,
      "МЕТАЛЛОКОНСТРУКЦИЙ": 6065,
      "ИЮ": 6066,
      "ШПИН": 6067,
      "НОСИТЕЛЬ": 6068,
      "СОБСТВЕН": 6069,
      "SYSM": 6070,
      "СОЕДИНИТЕЛЬНАЯ": 6071,
      "ПОЛОТНА": 6072,
      "АЭРОЗО": 6073,
      "ВОЗМОЖНОСТЬ": 6074,
      "ЧЕМ": 6075,
      "ХЛЕБОБУЛО": 6076,
      "ВОССТАНОВЛЕНИЮ": 6077,
      "ОЦИНКОВАННОЙ": 6078,
      "ЭЛЕКТРОДВИГАТЕЛЯ": 6079,
      "КОНЪЮ": 6080,
      "СВЕКЛО": 6081,
      "ПОЛОЦКА": 6082,
      "БЭ": 6083,
      "ЭЛИТА": 6084,
      "ТОЧНО": 6085,
      "ПОЛЮ": 6086,
      "СЕРВЕ": 6087,
      "МОРОЗИ": 6088,
      "ЛЕГКОВОЙ": 6089,
      "ОТКЛОН": 6090,
      "ПСИХИАТРИЧЕСКАЯ": 6091,
      "ЦЕНТРАЛЬНОЙ": 6092,
      "ПОЗД": 6093,
      "МЕХАНИЧЕСКИЙ": 6094,
      "СТАКАН": 6095,
      "ТУРУ": 6096,
      "НЕРЖ": 6097,
      "ДВУХКОМПОНЕНТ": 6098,
      "РЕЧИЦКИЙ": 6099,
      "ПОЛИЭФИ": 6100,
      "ПЕРЕЧНЮ": 6101,
      "НАРО": 6102,
      "ТИВНО": 6103,
      "ЗИРОВАННЫЙ": 6104,
      "ВОССТАНОВЛЕНИЕ": 6105,
      "КВАРТАЛЕ": 6106,
      "СЕЧЕНИЕМ": 6107,
      "ОСТЕКЛЕ": 6108,
      "ПОЛИВИНИЛ": 6109,
      "ПГ": 6110,
      "АУДИТ": 6111,
      "СТЫХ": 6112,
      "РМ": 6113,
      "СТОМАТОЛОГИЧЕСКИЙ": 6114,
      "ПОЛУПРИЦЕП": 6115,
      "ДОРОЖНОЙ": 6116,
      "ТОПЛИВНЫЙ": 6117,
      "ГРУНТ": 6118,
      "ЯЗЫКЕ": 6119,
      "ЗАГРЯЗН": 6120,
      "ПРИНИМАЕТСЯ": 6121,
      "ГРОМАШ": 6122,
      "ММЗ": 6123,
      "ЭТАП": 6124,
      "ЛЮКСЕМ": 6125,
      "СПАРТАК": 6126,
      "ЛЮКСЕМБУРГ": 6127,
      "ЛОЧНЫЙ": 6128,
      "ТЕЛЬНО": 6129,
      "СТАЛЬНЫХ": 6130,
      "ПЕРЕМЕЩ": 6131,
      "ПОРТОВ": 6132,
      "ПЛАТФОРМЫ": 6133,
      "РЕАБИЛИТА": 6134,
      "ИВАЦЕВИЧСКАЯ": 6135,
      "ГРУЗОВ": 6136,
      "РЕЧИЦКАЯ": 6137,
      "УСА": 6138,
      "ОПТИЧЕСКАЯ": 6139,
      "ПОЛУЧЕННЫЙ": 6140,
      "RY": 6141,
      "ВЕНТ": 6142,
      "LADI": 6143,
      "РЕЖУ": 6144,
      "ПЕС": 6145,
      "ПОРШНЕ": 6146,
      "ПРАВЫЙ": 6147,
      "МОЛОЧНОГО": 6148,
      "СОСТАВЛЕНИЕМ": 6149,
      "ЖИДКОЕ": 6150,
      "ИНФОРМАЦИОННОЙ": 6151,
      "МЕМБРА": 6152,
      "ПОЛНОЕ": 6153,
      "HA": 6154,
      "MIT": 6155,
      "ОБОИ": 6156,
      "ГЛЮКОЗА": 6157,
      "ПРОХОДНОЙ": 6158,
      "VLADI": 6159,
      "МАРГА": 6160,
      "VOSTOK": 6161,
      "VLADIVOSTOK": 6162,
      "ЕЛЬ": 6163,
      "ЦТП": 6164,
      "КОЛИ": 6165,
      "DEN": 6166,
      "ВЫДА": 6167,
      "ПЕРЦА": 6168,
      "АЛЮМИНИЕВЫЙ": 6169,
      "ВОЗМОЖНА": 6170,
      "РЕГУЛЯТОРЫ": 6171,
      "ДАТЫ": 6172,
      "САВУ": 6173,
      "БЕЛОГО": 6174,
      "СТОИМОСТИ": 6175,
      "ДЬ": 6176,
      "ОФТА": 6177,
      "ЛОТУ": 6178,
      "БАССЕЙ": 6179,
      "СКЛАДЕ": 6180,
      "ПРЕДЛАГАТЬ": 6181,
      "ЧЕРТЕЖЕЙ": 6182,
      "ГЛУБОКО": 6183,
      "НОМИНАЛЬНЫМ": 6184,
      "ВИРУСНОЙ": 6185,
      "ПАМЯТИ": 6186,
      "ЦЫПЛЯТ": 6187,
      "КОВИЧСКАЯ": 6188,
      "ТАРСКАЯ": 6189,
      "ЛОГИЧЕСКАЯ": 6190,
      "ПРЕДЛОЖЕНИЙ": 6191,
      "УАЗ": 6192,
      "МАСЕЛ": 6193,
      "ВЕСА": 6194,
      "ПРИРОД": 6195,
      "МУКА": 6196,
      "ПОДУ": 6197,
      "ТЯГА": 6198,
      "СЕВА": 6199,
      "ВЕРХНИЙ": 6200,
      "ПЕРЕДВИЖНАЯ": 6201,
      "JET": 6202,
      "ПРЕДЪ": 6203,
      "ПОДКЛАД": 6204,
      "ТЕЛЯМ": 6205,
      "МНОГОРАЗО": 6206,
      "ВАКУУМНЫЙ": 6207,
      "ТРЕНАЖЕ": 6208,
      "МЯДЕЛЬ": 6209,
      "ТРАНСНЕФТЕПРОДУКТ": 6210,
      "ЖИЛЫЕ": 6211,
      "ПОЛУЧА": 6212,
      "КЛИН": 6213,
      "ПФ": 6214,
      "ХОЙ": 6215,
      "PM": 6216,
      "ТРАС": 6217,
      "ТИА": 6218,
      "БОРТ": 6219,
      "СТЕРИЛЬНАЯ": 6220,
      "РАСХОДНЫХ": 6221,
      "ТЕХНОЛОГИЧЕСКИХ": 6222,
      "НИВА": 6223,
      "РЕГ": 6224,
      "ДИЗЕЛЬ": 6225,
      "ИО": 6226,
      "СЖА": 6227,
      "ПРИСПОСОБ": 6228,
      "КОНТУР": 6229,
      "ПОМЕЩЕНИЕ": 6230,
      "НАЦИОНАЛЬНОГО": 6231,
      "САНИТАРНО": 6232,
      "ПРИМЕЧАНИЕ": 6233,
      "ФРОНТА": 6234,
      "КОММУНИСТИЧЕСКАЯ": 6235,
      "КК": 6236,
      "ПРОМЫШЛЕННОСТИ": 6237,
      "КНИГА": 6238,
      "HDD": 6239,
      "ДМ": 6240,
      "РАТОН": 6241,
      "ЛИКЕРО": 6242,
      "ЖИЛАМИ": 6243,
      "ОТГРУЗКИ": 6244,
      "ТРАНСМИ": 6245,
      "СЕЛЬСКОГО": 6246,
      "ТЕРМОСТА": 6247,
      "МГЦ": 6248,
      "ПОЛИПРОПИЛЕНА": 6249,
      "KERA": 6250,
      "МУСОРА": 6251,
      "УША": 6252,
      "КАРАН": 6253,
      "ЛИВАНИЯ": 6254,
      "ВТОДОР": 6255,
      "ГЛАВНОГО": 6256,
      "НЕЙРО": 6257,
      "NOVO": 6258,
      "САЛФЕТКИ": 6259,
      "НЖ": 6260,
      "ПРИД": 6261,
      "КАЧЕСТВО": 6262,
      "КАПИЛ": 6263,
      "КОМБИНИРОВАННЫЙ": 6264,
      "СЫВОРОТКА": 6265,
      "TD": 6266,
      "ВИТЕБСКОБЛ": 6267,
      "ОБЛПО": 6268,
      "ПОКАЗАТЕЛИ": 6269,
      "ИСКЛЮЧИТЕЛЬ": 6270,
      "ISEAL": 6271,
      "ПЕСЧА": 6272,
      "ГАТ": 6273,
      "ПКИ": 6274,
      "ГРЕЙ": 6275,
      "МОДУЛЯ": 6276,
      "АВВГНГ": 6277,
      "ОБРАЗНЫЙ": 6278,
      "ОБУЧЕНИЕ": 6279,
      "OPTISEAL": 6280,
      "NINGBO": 6281,
      "ЧЕНКО": 6282,
      "ОТКРЫТОГО": 6283,
      "МИНСКОБЛХЛЕБОПРОДУКТ": 6284,
      "ДНОГО": 6285,
      "ОБМО": 6286,
      "РИРОВАННАЯ": 6287,
      "МОЩНОСТИ": 6288,
      "ВАЮЩИЙСЯ": 6289,
      "ПОДОКОН": 6290,
      "ВСТРОЕННЫМ": 6291,
      "ГЕМОСТА": 6292,
      "ЗАПЧАСТЬТРЕЙД": 6293,
      "FC": 6294,
      "ЛАРИН": 6295,
      "ШЛА": 6296,
      "КАПУ": 6297,
      "ДЕКС": 6298,
      "ЧАТАЯ": 6299,
      "ЗНАЧЕНИЕ": 6300,
      "ТЕХНОБАНК": 6301,
      "ТНВЭД": 6302,
      "ОБЯЗАТЕЛЬНОЕ": 6303,
      "ПОМЕЩЕНИЯХ": 6304,
      "СВИНО": 6305,
      "ВОЗМОЖНОСТИ": 6306,
      "МАНОМЕТР": 6307,
      "ШНУР": 6308,
      "ЖОДИНСКАЯ": 6309,
      "КЖ": 6310,
      "ОБЪЕМА": 6311,
      "ЗДОРОВ": 6312,
      "ДИНИ": 6313,
      "ВИНТОВОЙ": 6314,
      "ПЕРЕВОЗКУ": 6315,
      "ОКТЯБРЬСКИЙ": 6316,
      "ИММУНОФЕРМЕНТНОГО": 6317,
      "ЦЕЛЛЮ": 6318,
      "ЦЕНТРОБЕ": 6319,
      "РЕФРИ": 6320,
      "МОД": 6321,
      "БЕЛОРУССКИЕ": 6322,
      "КОНЕ": 6323,
      "ДИСТАН": 6324,
      "ПИЛО": 6325,
      "ONG": 6326,
      "ГРУЗОВОГО": 6327,
      "КАЛИЯ": 6328,
      "РОВОЧНЫЕ": 6329,
      "НАСОСНОЙ": 6330,
      "КОЛЕСА": 6331,
      "РУКАВА": 6332,
      "УРОВЕНЬ": 6333,
      "БЕРЕЗОВСКАЯ": 6334,
      "WS": 6335,
      "ЕК": 6336,
      "МИК": 6337,
      "РЕФРИЖЕРА": 6338,
      "LINE": 6339,
      "ЛОЕВ": 6340,
      "РУССКОМ": 6341,
      "РЕННЫЕ": 6342,
      "СТОЙКИЙ": 6343,
      "ПЛАСТИКОВЫЕ": 6344,
      "НАЛИЧИИ": 6345,
      "ЗАТВОР": 6346,
      "РАДИОЛОГИИ": 6347,
      "SYSMEX": 6348,
      "КОВЩИНА": 6349,
      "ШОССЕ": 6350,
      "МИЦИНА": 6351,
      "ЩЕТКА": 6352,
      "ПОЛКИ": 6353,
      "РАЗБА": 6354,
      "ВИТЕЛЕМ": 6355,
      "ГРУППО": 6356,
      "ОСУЩЕСТВЛЯЕТСЯ": 6357,
      "УНП": 6358,
      "ПОЛЯ": 6359,
      "РАСПОЛОЖЕННОЙ": 6360,
      "EURO": 6361,
      "ИТО": 6362,
      "ВОЧНОГО": 6363,
      "МЕСТЕ": 6364,
      "ИЗОБРА": 6365,
      "ПЛАСТИКОВАЯ": 6366,
      "СТЕНКИ": 6367,
      "НИЖНИЙ": 6368,
      "ПРЕДПРИНИМАТЕЛЯ": 6369,
      "ЭКСПЕРИМЕНТАЛЬНАЯ": 6370,
      "BUL": 6371,
      "CAS": 6372,
      "МАГА": 6373,
      "ВИБРО": 6374,
      "МАТОВАЯ": 6375,
      "ИСПОЛНЕНИЕ": 6376,
      "INTER": 6377,
      "ЛИНЕЙНЫЙ": 6378,
      "РЕВОЛЮ": 6379,
      "ПРОЛЕТАРСКАЯ": 6380,
      "ТКОВ": 6381,
      "ЩИТОК": 6382,
      "РАБОТЕ": 6383,
      "СТРОИТЕЛЬСТВЕ": 6384,
      "КОМПЛЕКТЫ": 6385,
      "STON": 6386,
      "МАЯКОВСКОГО": 6387,
      "КОМПЛЕКТУЮЩИМИ": 6388,
      "SAE": 6389,
      "ПРОВОЛОКА": 6390,
      "NY": 6391,
      "РИНО": 6392,
      "ВЕСЬ": 6393,
      "БРЕСТСКОЕ": 6394,
      "ПСИХО": 6395,
      "ДОБРУШСКАЯ": 6396,
      "БИЗ": 6397,
      "ОСЬ": 6398,
      "КОНТР": 6399,
      "АСПИРА": 6400,
      "СЧЕТЧИКА": 6401,
      "СЕРАЯ": 6402,
      "КИСЛЫЙ": 6403,
      "КОНОСАМЕНТ": 6404,
      "СОЛИГОРСКИЙ": 6405,
      "ИК": 6406,
      "НАИ": 6407,
      "МОЧИ": 6408,
      "НАТРИЙ": 6409,
      "ЗАВОДСКОЙ": 6410,
      "КОНСТРУКТОР": 6411,
      "УЧАСТНИКОВ": 6412,
      "ОТОПЛЕНИЕ": 6413,
      "АПВПУ": 6414,
      "AA": 6415,
      "EUR": 6416,
      "ПАПКА": 6417,
      "ГАРАНТИЙНЫЙ": 6418,
      "СВЕТОДИОДНАЯ": 6419,
      "СКВАЖИ": 6420,
      "КАРТРИДЖЕЙ": 6421,
      "КОФЕ": 6422,
      "НАВИ": 6423,
      "ВЕК": 6424,
      "ОКНА": 6425,
      "ИВАЦЕВИЧИ": 6426,
      "НАГРУЗКИ": 6427,
      "СОЛЕ": 6428,
      "ДЕТЕ": 6429,
      "ДЕЛЕНИЙ": 6430,
      "АДГЕ": 6431,
      "ВАКУА": 6432,
      "БРОЙЛЕРОВ": 6433,
      "ROSSI": 6434,
      "БГ": 6435,
      "БЩЕ": 6436,
      "ГОМЕЛЬСТЕКЛО": 6437,
      "ОБЩЕСТВА": 6438,
      "ИЗОЛЯЦИЯ": 6439,
      "ТТО": 6440,
      "ЧНИКОВ": 6441,
      "ЭВАКУА": 6442,
      "ОБЪЁ": 6443,
      "БАЗЫ": 6444,
      "КАТАЛОЖ": 6445,
      "ОБРАЗЦОВ": 6446,
      "ХЛОРИДА": 6447,
      "ТУМБА": 6448,
      "СНЕ": 6449,
      "KZ": 6450,
      "УБО": 6451,
      "КОСИ": 6452,
      "ЧЕТЕ": 6453,
      "ЛЯЦИИ": 6454,
      "ОТЧЕТА": 6455,
      "ЩИП": 6456,
      "ПОДДЕРЖИ": 6457,
      "РЕМОНТНЫЕ": 6458,
      "СТОЙКАЯ": 6459,
      "НАПРЯЖЕНИЕМ": 6460,
      "ПОЗИЦИИ": 6461,
      "ОБЕСПЕЧИВАЮЩУЮ": 6462,
      "УРОЖАЙ": 6463,
      "ИЗДАТЕЛЬСТВО": 6464,
      "ЦЕЛЛЮЛО": 6465,
      "ТРЕБОБЩЕ": 6466,
      "ОБЛПОТРЕБОБЩЕ": 6467,
      "УМЫВА": 6468,
      "ЩЕННЫЙ": 6469,
      "ЛОВЫЙ": 6470,
      "ГУО": 6471,
      "КОНТЕЙНЕРОВ": 6472,
      "ТЕБУКОНАЗОЛ": 6473,
      "ГЕНЕ": 6474,
      "СОЮЗА": 6475,
      "BAR": 6476,
      "КАТУ": 6477,
      "ЛИМОН": 6478,
      "КОНСЕРВИ": 6479,
      "ДОКУМЕНТАМ": 6480,
      "ПОДШИПНИКА": 6481,
      "АТТЕСТА": 6482,
      "ЖИЛСТРОЙ": 6483,
      "DSL": 6484,
      "ТВЕРДОСПЛА": 6485,
      "KERAMIN": 6486,
      "ТРАВ": 6487,
      "ОБЪЕКТАХ": 6488,
      "RING": 6489,
      "ТКЕ": 6490,
      "ПОСТ": 6491,
      "РАЗРЕШЕНИЕ": 6492,
      "СЛЕЖИ": 6493,
      "МНОГОСЛОЙНАЯ": 6494,
      "ГИДРОХЛОРИД": 6495,
      "ФУНКЦИЕЙ": 6496,
      "КОРМОВАЯ": 6497,
      "БАТАРЕЙ": 6498,
      "ВОЛОКНА": 6499,
      "TOP": 6500,
      "ГОГО": 6501,
      "МИЛКА": 6502,
      "СЕРО": 6503,
      "КРАХМА": 6504,
      "ВОДОСТО": 6505,
      "ELY": 6506,
      "КУПАЛЫ": 6507,
      "МАТРИЦА": 6508,
      "ВКЛАДЫШ": 6509,
      "АСФАЛЬТОБЕТОННОГО": 6510,
      "ФИЛЬТРУЮЩИЙ": 6511,
      "CANON": 6512,
      "СОПРОТИВЛЕНИЯ": 6513,
      "ВОЗДЕЙСТВИЙ": 6514,
      "ПРОИСХОЖДЕНИЯ": 6515,
      "CF": 6516,
      "ЗОК": 6517,
      "TS": 6518,
      "ПАПРИКА": 6519,
      "СОСТАВЛЯ": 6520,
      "МОЗЫРСКАЯ": 6521,
      "АРЕНДЕ": 6522,
      "ПРОЕКТИРУ": 6523,
      "ДИСПЕТЧЕРИ": 6524,
      "АРЗ": 6525,
      "ВТБ": 6526,
      "ЗАПАДНЫЙ": 6527,
      "ПОГРАНИЧНЫЙ": 6528,
      "ИВ": 6529,
      "ПТМ": 6530,
      "ВАЕМАЯ": 6531,
      "ТАЗ": 6532,
      "ТИВНЫЕ": 6533,
      "ИМПЛАН": 6534,
      "МАШИНО": 6535,
      "ТРУБОПРОВОДА": 6536,
      "НАТУРАЛЬНЫЕ": 6537,
      "ОГРАЖДЕНИЕ": 6538,
      "ГИГИЕНИ": 6539,
      "СВАРКИ": 6540,
      "ГАБАРИТЫ": 6541,
      "ПРОБИРКА": 6542,
      "СЫРЬЕ": 6543,
      "ВАГОНОВ": 6544,
      "УГЛОВОЙ": 6545,
      "ШЕСТЕРНЯ": 6546,
      "ИЗУЧЕНИЯ": 6547,
      "ПТ": 6548,
      "ПУЛЬМОНО": 6549,
      "ОЦЕНКИ": 6550,
      "MET": 6551,
      "VAL": 6552,
      "ТЕРЕ": 6553,
      "СТРОЯЩЕГОСЯ": 6554,
      "ОСНОВАНИИ": 6555,
      "ФЛАНЦАМИ": 6556,
      "ОСТРОВСКОГО": 6557,
      "СОДЕРЖИТСЯ": 6558,
      "ШПАТ": 6559,
      "АРЕНДОДА": 6560,
      "БЫВШИ": 6561,
      "НАСЕ": 6562,
      "САР": 6563,
      "ПУГО": 6564,
      "ТУАР": 6565,
      "ЮЩЕМ": 6566,
      "МОЛОДНЯ": 6567,
      "ПРОЦЕССА": 6568,
      "ВТТ": 6569,
      "ПЛОЩАДОК": 6570,
      "ФОСФАТ": 6571,
      "ПОВЫШЕННОЙ": 6572,
      "ЗЕЛЕНСТРОЙ": 6573,
      "ЯЩИХСЯ": 6574,
      "ОРТОПЕДИ": 6575,
      "SEN": 6576,
      "ИСТИРА": 6577,
      "ОПА": 6578,
      "ЧЕНИИ": 6579,
      "ТИЙ": 6580,
      "ПАСТЕРИ": 6581,
      "ПАЛЛЕ": 6582,
      "ОБЛАДА": 6583,
      "БРЕСТСКОГО": 6584,
      "ПРАВАЯ": 6585,
      "МИНСКРЕМСТРОЙ": 6586,
      "ALY": 6587,
      "АПР": 6588,
      "РОГАЧЕВ": 6589,
      "КОСМОНА": 6590,
      "ТИХИ": 6591,
      "BOS": 6592,
      "ВОЗА": 6593,
      "ТОЧНОСТИ": 6594,
      "ЭТИКЕТОК": 6595,
      "ВТОВ": 6596,
      "ПОЛЬША": 6597,
      "SEC": 6598,
      "YSK": 6599,
      "ЁХ": 6600,
      "ГМЕНТ": 6601,
      "ГУСЕНИ": 6602,
      "ПРАВЕ": 6603,
      "ТРОТУАР": 6604,
      "КАБЕЛЬНАЯ": 6605,
      "ОБОЛОЧКЕ": 6606,
      "ФАСАДОВ": 6607,
      "АНТИОКИСЛИТЕЛИ": 6608,
      "МУФТЫ": 6609,
      "ЭФФЕКТОМ": 6610,
      "АКРИЛОВАЯ": 6611,
      "КУБА": 6612,
      "ЖЕНСКИЙ": 6613,
      "МОРОЗО": 6614,
      "КРУПНО": 6615,
      "ЗДОРОВЬЯ": 6616,
      "КОСМОНАВТОВ": 6617,
      "IG": 6618,
      "PAN": 6619,
      "ННОЕ": 6620,
      "СТАКА": 6621,
      "ТЕХНИКО": 6622,
      "МАТЕРИАЛАМИ": 6623,
      "ФУНК": 6624,
      "ВОДИТЕЛЯ": 6625,
      "СОСТАВА": 6626,
      "СИСТЕМНЫЙ": 6627,
      "ВЛОЖЕНИИ": 6628,
      "ДЕФЕКТНОГО": 6629,
      "NOVOROSSI": 6630,
      "NOVOROSSIYSK": 6631,
      "НКТУРЫ": 6632,
      "НАТА": 6633,
      "КУХ": 6634,
      "УШ": 6635,
      "АКБ": 6636,
      "ТРАНСПОРТНОГО": 6637,
      "КАТАЛИ": 6638,
      "УСЛОВИЙ": 6639,
      "МОРОЖЕ": 6640,
      "КОВОЛЬ": 6641,
      "ДВОЙНОЙ": 6642,
      "ТАБЛИЧКА": 6643,
      "КАТАЛОЖНЫЙ": 6644,
      "ЕС": 6645,
      "СОБИ": 6646,
      "ВИЯ": 6647,
      "ПОДСВЕТ": 6648,
      "ЖЕБ": 6649,
      "ТЕПЛОСНАБЖЕНИЯ": 6650,
      "ДАННЫЕ": 6651,
      "ПОВЕРХНОСТЬ": 6652,
      "ОРШАНСКАЯ": 6653,
      "ПЕТЛИ": 6654,
      "КОРЕЛИ": 6655,
      "ПОРЯДКЕ": 6656,
      "УМА": 6657,
      "БЫТОВОЙ": 6658,
      "ЭКСПЛУАТАЦИОННОЕ": 6659,
      "РОТОР": 6660,
      "ПОМЕЩЕНИИ": 6661,
      "САМОСВА": 6662,
      "ЖИДКИЙ": 6663,
      "ГРЭС": 6664,
      "КМД": 6665,
      "ПУЛЬТ": 6666,
      "СВХ": 6667,
      "ЗОНЫ": 6668,
      "ОБЪЕКТАМ": 6669,
      "ПОЗИЦИЯ": 6670,
      "СЛАВЛЬ": 6671,
      "КОНЪЮНКТУРЫ": 6672,
      "ВВЕДЕНИЯ": 6673,
      "ШВА": 6674,
      "ПИПЕ": 6675,
      "СЛУЖЕБ": 6676,
      "ГАЗОВЫЙ": 6677,
      "ХОЗЯЙСТВЕННО": 6678,
      "ИЗГОТОВЛЕН": 6679,
      "МАССОВОЙ": 6680,
      "ОТДЕЛЬНО": 6681,
      "СЕМЕНОВА": 6682,
      "ТЕРМИНАЛ": 6683,
      "НАСТОЯ": 6684,
      "МОСТ": 6685,
      "НОВОЛУКОМ": 6686,
      "БОЛЬШИ": 6687,
      "КОШЕЛЕ": 6688,
      "РЭС": 6689,
      "СТРИЯ": 6690,
      "НИНЫ": 6691,
      "ПРОШИ": 6692,
      "ГАЗОСНАБЖЕНИЯ": 6693,
      "ИЗДЕЛИЕ": 6694,
      "ТЕМПЕРАТУРНЫЙ": 6695,
      "CORPO": 6696,
      "ПОМОЩЬЮ": 6697,
      "КОВИ": 6698,
      "ТИЛ": 6699,
      "БИТ": 6700,
      "ЛОГИЧЕСКИЕ": 6701,
      "ШУМИ": 6702,
      "ЦКОЙ": 6703,
      "ЕННОЙ": 6704,
      "ВИБРА": 6705,
      "ПЛАСТИНЫ": 6706,
      "ДИНАМИЧЕ": 6707,
      "ЮБИЛЕЙНАЯ": 6708,
      "RF": 6709,
      "АКВА": 6710,
      "ОБЛПОТРЕБОБЩЕСТВО": 6711,
      "PLE": 6712,
      "КОЭФ": 6713,
      "ЩИМ": 6714,
      "ПИРО": 6715,
      "ПУШКИНА": 6716,
      "ВОДЯ": 6717,
      "ОПОРЫ": 6718,
      "ТРАНСПОРТНОЙ": 6719,
      "ЛИП": 6720,
      "КИНА": 6721,
      "ТАРЕ": 6722,
      "ДОБ": 6723,
      "ВИЗУ": 6724,
      "СИД": 6725,
      "ЖИНИ": 6726,
      "ЖЕНСКИЕ": 6727,
      "БРУТТО": 6728,
      "АРЕНДА": 6729,
      "БИОХИМИЧЕ": 6730,
      "ОТСУТСТВИИ": 6731,
      "УРА": 6732,
      "МОГИЛЁВСКАЯ": 6733,
      "РУКОВОД": 6734,
      "ХОВ": 6735,
      "ГУК": 6736,
      "СОРБ": 6737,
      "ТЯЖЕ": 6738,
      "ДВЕРНОЙ": 6739,
      "ФЛАНЦЕВАЯ": 6740,
      "ШЕСТИГРАН": 6741,
      "SV": 6742,
      "ЙС": 6743,
      "МПИ": 6744,
      "СЛУЧАЕ": 6745,
      "VAN": 6746,
      "СПРЕ": 6747,
      "КОЖИ": 6748,
      "НЕИСКЛЮЧИТЕЛЬ": 6749,
      "НОВРЕМЕН": 6750,
      "ОДНОКРАТНОГО": 6751,
      "ГРЕДИ": 6752,
      "ФИНАНСИ": 6753,
      "БАТАРЕИ": 6754,
      "НАСТЕННЫЙ": 6755,
      "КОРИЧНЕВЫЙ": 6756,
      "СУХИХ": 6757,
      "ЗАГОТОВОК": 6758,
      "БОЛЬШАЯ": 6759,
      "МЕШКА": 6760,
      "ИНГРЕДИ": 6761,
      "РЕСПИРА": 6762,
      "ТРАНСПОРТНОЕ": 6763,
      "ВНУТРЕННИМ": 6764,
      "ОДНОСТОРОН": 6765,
      "КИСЛОРОД": 6766,
      "ОСНОВНЫЕ": 6767,
      "ОКОННЫЙ": 6768,
      "ОЦИНКОВАННЫЙ": 6769,
      "СЕКЦИЯ": 6770,
      "МАНИПУЛЯ": 6771,
      "ЖИНИРИН": 6772,
      "КРАНЫ": 6773,
      "ВЫПОЛНЕНИЕМ": 6774,
      "ГОРЕЦКОГО": 6775,
      "VOL": 6776,
      "ЙКИ": 6777,
      "КТОВ": 6778,
      "ТАРЯ": 6779,
      "ЖДЕНИЙ": 6780,
      "ВОДОРОДА": 6781,
      "ЛОГОТИПА": 6782,
      "ВЫРАЩИ": 6783,
      "КИРПИЧ": 6784,
      "ПУЛЬМОНОЛОГИИ": 6785,
      "РАБОТНИКОВ": 6786,
      "CY": 6787,
      "ОКОЛО": 6788,
      "ВАЛЕН": 6789,
      "МАТЕРИ": 6790,
      "КУТ": 6791,
      "РАЗДЕЛ": 6792,
      "ГРОДНОЭНЕРГО": 6793,
      "ГАЗОВОЙ": 6794,
      "СМОТРИ": 6795,
      "ДЕНЬ": 6796,
      "ПЛАСТИКА": 6797,
      "КОНДИЦИОНЕР": 6798,
      "ПОВРЕЖД": 6799,
      "ФЕНО": 6800,
      "АЦЕ": 6801,
      "ЗМИ": 6802,
      "ЛС": 6803,
      "ЭСПЦ": 6804,
      "КОТЕЛ": 6805,
      "МЕХ": 6806,
      "СОПУТ": 6807,
      "СТОЛЕ": 6808,
      "ВЛЕНЫ": 6809,
      "УСТАНОВКУ": 6810,
      "МЕТАЛЛОВ": 6811,
      "CHER": 6812,
      "ТЕКСТУ": 6813,
      "УПАКОВОЧНЫЙ": 6814,
      "КОЗЛОВА": 6815,
      "ПОЛИГРАФИЧЕСКИЕ": 6816,
      "ИБП": 6817,
      "ПОКОВКА": 6818,
      "ДОВА": 6819,
      "ПЕКАР": 6820,
      "ГРУЗКОЙ": 6821,
      "КОНТРОЛЛЕ": 6822,
      "OLD": 6823,
      "УТЕПЛИ": 6824,
      "ВКЛЮЧЕН": 6825,
      "РАСШИРЕНИЯ": 6826,
      "СУЩЕСТВУЮЩИМ": 6827,
      "ОСУЩЕСТВЛЕНИЮ": 6828,
      "ЕЖЕДНЕВ": 6829,
      "ЩИПЦЫ": 6830,
      "СОПУТСТВУ": 6831,
      "ДВУМЯ": 6832,
      "СЛОНИМСКИЙ": 6833,
      "ЛЕНИЕМ": 6834,
      "ВИТРИ": 6835,
      "ПЕСОК": 6836,
      "РАБОТАМИ": 6837,
      "УКАЗАНО": 6838,
      "ШЕННОГО": 6839,
      "МОНИТОРА": 6840,
      "РЕДУК": 6841,
      "ДЕРЕВЯННЫЕ": 6842,
      "ИЗОЛИРОВАННОГО": 6843,
      "ИНАКТИВИРОВАННАЯ": 6844,
      "ТИХИНИЧИ": 6845,
      "РОССО": 6846,
      "ХОДО": 6847,
      "СМОЛЕВИЧИ": 6848,
      "ОЖЕ": 6849,
      "ЯБЛО": 6850,
      "УПАК": 6851,
      "ТЕПЛОВОГО": 6852,
      "ПРОИЗВОДИТСЯ": 6853,
      "ДЕЙСТВУЮЩЕМ": 6854,
      "АЛЮМИНИЯ": 6855,
      "ФАСАДНАЯ": 6856,
      "НАДЗОР": 6857,
      "РЕГУЛИРУЮЩИЙ": 6858,
      "SOFT": 6859,
      "КОТОРЫЙ": 6860,
      "ВОСТОК": 6861,
      "УНИВЕРСИТЕТСКАЯ": 6862,
      "СЕНТЯБРЯ": 6863,
      "ПНД": 6864,
      "ПЛАСТИКОВЫЙ": 6865,
      "ОПЕРАТИВНАЯ": 6866,
      "ОТДЕЛЬНЫХ": 6867,
      "ПОЛИЭСТЕР": 6868,
      "НАПРАВЛЯЮЩАЯ": 6869,
      "ФИЛЬТРОМ": 6870,
      "ПРИГЛАШЕНИЯ": 6871,
      "КОРРЕКТИ": 6872,
      "ОДНОЙ": 6873,
      "ПОЕ": 6874,
      "ВОДЕ": 6875,
      "ТОЧКА": 6876,
      "ПРОТЯ": 6877,
      "КОРНЕ": 6878,
      "ВЛАДИ": 6879,
      "ТЕХНОЛОГИЧЕСКОЙ": 6880,
      "CORPORATION": 6881,
      "ОЖЕШКО": 6882,
      "БЦК": 6883,
      "CAP": 6884,
      "VIT": 6885,
      "ОПАСНО": 6886,
      "ЦИТО": 6887,
      "БУРЕ": 6888,
      "ЧНОМУ": 6889,
      "ВОЗМОЖНО": 6890,
      "ПРЕДСТАВЛЯ": 6891,
      "НОМЕРА": 6892,
      "АЛЕКСАНД": 6893,
      "ФТИЗИАТРИИ": 6894,
      "ИТОГАМ": 6895,
      "АСКУ": 6896,
      "ORA": 6897,
      "АСУ": 6898,
      "ВН": 6899,
      "НСКОЕ": 6900,
      "МОГИЛЕВСКОЙ": 6901,
      "БЕЛОК": 6902,
      "ИЗОТЕРМИЧЕ": 6903,
      "СВЯЗА": 6904,
      "ГЛУБИНА": 6905,
      "ПАКЕТОВ": 6906,
      "ДЕРЕВЬЕВ": 6907,
      "НЕЗАРЕГИСТРИРОВАННОЕ": 6908,
      "ЧУГУН": 6909,
      "ПОЛИЭФИР": 6910,
      "ПОСУДЫ": 6911,
      "ЦЕЛЬЮ": 6912,
      "EK": 6913,
      "СИЛ": 6914,
      "КОЛЬЦЕ": 6915,
      "УКСУ": 6916,
      "GRE": 6917,
      "ОПЛАТА": 6918,
      "КЛАДО": 6919,
      "СВИНИНА": 6920,
      "ПРОФ": 6921,
      "ШКОЛЬНАЯ": 6922,
      "CISCO": 6923,
      "ORE": 6924,
      "СТЕРЖ": 6925,
      "БЕТОННЫХ": 6926,
      "ДРЕВЕСИ": 6927,
      "КОЭФФИЦИ": 6928,
      "ТОВОЕ": 6929,
      "ПЕРЕВО": 6930,
      "SATA": 6931,
      "ШЕНИЕ": 6932,
      "СКОПА": 6933,
      "СИБО": 6934,
      "РЕМОНТНЫЙ": 6935,
      "ОРГАНИЗ": 6936,
      "МЕДЬ": 6937,
      "БЕСПРОВОД": 6938,
      "ЭНЕРГЕТИКОВ": 6939,
      "РАСПРЕДЕЛИТЕЛЬНЫЙ": 6940,
      "МАССЫ": 6941,
      "СПАСИБО": 6942,
      "СТАБИЛИЗАТОРЫ": 6943,
      "ЛОВИЧИ": 6944,
      "ФРУНЗЕНСКОГО": 6945,
      "ПОТО": 6946,
      "ВАЮЩЕЙ": 6947,
      "РАЗГРУЗО": 6948,
      "ROL": 6949,
      "САМОРЕЗ": 6950,
      "СПИРА": 6951,
      "ПРИЛАГАЕМОЙ": 6952,
      "ЗДОЧКА": 6953,
      "ЖЕСТКИЙ": 6954,
      "ХУЖЕ": 6955,
      "КОММУНИКАЦИЙ": 6956,
      "ПОВЕРХНОСТ": 6957,
      "ПАРК": 6958,
      "ДОЛГО": 6959,
      "ГОРЕЦКАЯ": 6960,
      "ЁР": 6961,
      "БРОВКИ": 6962,
      "ТНЫМИ": 6963,
      "ВЕРХНЯЯ": 6964,
      "КОВЫМ": 6965,
      "КОЛБАСА": 6966,
      "КЕРАМИЧЕСКАЯ": 6967,
      "ЛЕСТНИ": 6968,
      "РАСХОДОМЕ": 6969,
      "БЕЖЕ": 6970,
      "ФЛЕКСО": 6971,
      "ВКОЙ": 6972,
      "НАПИ": 6973,
      "СКОТЧ": 6974,
      "ФЕРМЫ": 6975,
      "РУЛОНЕ": 6976,
      "SMART": 6977,
      "МЕСТНЫХ": 6978,
      "НАПОЛЬНЫЙ": 6979,
      "ИНВОЙСЫ": 6980,
      "СПЕЦИАЛИСТАМИ": 6981,
      "ЛАКТ": 6982,
      "ГАЗОВОГО": 6983,
      "ШТУЦЕР": 6984,
      "ДВИГАТЕЛЕЙ": 6985,
      "РЕШЕТКА": 6986,
      "МОЛОДНЯКА": 6987,
      "ТИТА": 6988,
      "ВНЕСЕНИЯ": 6989,
      "РЕВОЛЮЦИИ": 6990,
      "БРЫ": 6991,
      "РАЗРЕ": 6992,
      "РЯДА": 6993,
      "ВЫПОЛНЯ": 6994,
      "ГОРЯЧЕ": 6995,
      "ОТВЕРСТИЙ": 6996,
      "LADA": 6997,
      "СОЖ": 6998,
      "КОМБИКОРМО": 6999,
      "БЫТОВЫХ": 7000,
      "СОВЕТСКОЕ": 7001,
      "ГАММА": 7002,
      "АРХИТЕКТУ": 7003,
      "ПОСОБИ": 7004,
      "ЧЕСКИМ": 7005,
      "СТАНА": 7006,
      "ИЗМЕЛЬ": 7007,
      "КРАНОВ": 7008,
      "АКТА": 7009,
      "ТЕЛЕСКОПИ": 7010,
      "ИМПУЛЬ": 7011,
      "ГАЗОПРОВОДА": 7012,
      "ASUS": 7013,
      "КАРТРИДЖИ": 7014,
      "ЧИСЛЕНИЯ": 7015,
      "НАКОПИТЕЛЬ": 7016,
      "ПУГОВИ": 7017,
      "ШЕНИЮ": 7018,
      "ПРОСИМ": 7019,
      "ВИЛЕЙ": 7020,
      "ВОДХОЗ": 7021,
      "ГЛАВНЫЙ": 7022,
      "ЕВСКОГО": 7023,
      "BECK": 7024,
      "HC": 7025,
      "ISTAN": 7026,
      "ПОСТОРОН": 7027,
      "ЗАРЕГИСТРИРОВАННОЕ": 7028,
      "СОЛЮ": 7029,
      "ПЕРЕНО": 7030,
      "ШОВНЫЙ": 7031,
      "GHT": 7032,
      "ПАССАЖИРСКОГО": 7033,
      "ФИЛЬТРАЦИИ": 7034,
      "ОБЛОЖКА": 7035,
      "ОФТАЛЬМО": 7036,
      "МИНСКХЛЕБПРОМ": 7037,
      "ХЛЕБОЗАВОД": 7038,
      "ЛДСП": 7039,
      "ЛЬНЫМИ": 7040,
      "ОЧЕРЕ": 7041,
      "КВАДРА": 7042,
      "КЗК": 7043,
      "ВСПОМОГАТЕЛЬНЫЕ": 7044,
      "ПЛОЩАДЬЮ": 7045,
      "ИНО": 7046,
      "ПЕРЕЛИВАНИЯ": 7047,
      "ИНТЕРНАТ": 7048,
      "MIL": 7049,
      "PC": 7050,
      "ЗДОВ": 7051,
      "ФТ": 7052,
      "ЧНОМ": 7053,
      "РАМА": 7054,
      "ВЫДВИЖ": 7055,
      "ГАСТРО": 7056,
      "ПЕРЕДАЧ": 7057,
      "СОПРОВОЖДЕНИЮ": 7058,
      "ISTANBUL": 7059,
      "OC": 7060,
      "НАМ": 7061,
      "IX": 7062,
      "ИНЖИНИРИН": 7063,
      "СКОБА": 7064,
      "ЭТИЛ": 7065,
      "ОХЛАЖДА": 7066,
      "ОРИЕНТИРОВОЧНО": 7067,
      "ФАРТУ": 7068,
      "ЧАСТОТНЫЙ": 7069,
      "КИТАЙ": 7070,
      "ТРАК": 7071,
      "ДРЕВ": 7072,
      "РЕКЛАМ": 7073,
      "АСКУЭ": 7074,
      "СЛЕД": 7075,
      "СОДЕРЖАТЬ": 7076,
      "СТЕНД": 7077,
      "EXW": 7078,
      "ПРОГРАММНО": 7079,
      "ВЫПОЛНЕ": 7080,
      "СПОСОБНОСТИ": 7081,
      "ХОЛОДНО": 7082,
      "ЛАРИНГО": 7083,
      "ТКИНА": 7084,
      "АНИ": 7085,
      "БР": 7086,
      "ЛЕВКА": 7087,
      "МОСКВА": 7088,
      "ВЕРЕ": 7089,
      "БЕЛИН": 7090,
      "ФИКС": 7091,
      "ПУТЕМ": 7092,
      "ПОЛКА": 7093,
      "ТРУБОК": 7094,
      "ДЕПАРТАМЕНТ": 7095,
      "ИНВЕНТАРНЫЙ": 7096,
      "СТАДИИ": 7097,
      "HR": 7098,
      "ЕМОЕ": 7099,
      "ТКО": 7100,
      "УКОМПЛЕК": 7101,
      "СОВОГО": 7102,
      "ВЕРО": 7103,
      "НАЗНАЧЕНИЕ": 7104,
      "ЭЛЕКТРИЧЕСКОЕ": 7105,
      "ШТУКИ": 7106,
      "ВЗВЕ": 7107,
      "ПРИКРЕПЛЕННЫЙ": 7108,
      "УБОРКИ": 7109,
      "ЖНОСТЯМИ": 7110,
      "ОГРАНИЧИТЕЛЬ": 7111,
      "ЭМУЛЬГА": 7112,
      "РАБАТЫ": 7113,
      "ЗОР": 7114,
      "ЖДЕ": 7115,
      "ПРОЧНОСТИ": 7116,
      "САЛЯМИ": 7117,
      "РУЛОННЫЙ": 7118,
      "СПЕЦИАЛИЗИРОВАННАЯ": 7119,
      "УПРОЩЕННОЙ": 7120,
      "KINGSTON": 7121,
      "РЕАБИЛИТАЦИОННО": 7122,
      "SR": 7123,
      "ВНО": 7124,
      "ИСП": 7125,
      "АКАДЕМИКА": 7126,
      "СЭЗ": 7127,
      "UE": 7128,
      "ЛЕПЕ": 7129,
      "ПРЕРЫ": 7130,
      "РАНС": 7131,
      "МЕТКИ": 7132,
      "ОДНОВРЕМЕН": 7133,
      "ЕМКОСТИ": 7134,
      "ОБЪЕКТЫ": 7135,
      "GEELY": 7136,
      "НОЖНИЦЫ": 7137,
      "ФИЛЬТРОВ": 7138,
      "ПРИНАДЛЕЖНОСТЯМИ": 7139,
      "ПАЕВА": 7140,
      "СЛУЦКАЯ": 7141,
      "КРИЧЕВ": 7142,
      "ВАЮЩИХ": 7143,
      "ТИЧИ": 7144,
      "ИНСТРУМЕНТОВ": 7145,
      "МЕХАНИЧЕСКОЙ": 7146,
      "БОЛЬШЕ": 7147,
      "ГОЛОВКИ": 7148,
      "ДИСКОВЫЙ": 7149,
      "КАРБОНАТ": 7150,
      "MWM": 7151,
      "ВИЗУА": 7152,
      "ЭЛЕКТРОМОНТАЖ": 7153,
      "ПЕТРИКОВ": 7154,
      "BUR": 7155,
      "БРУС": 7156,
      "ЗНЫЙ": 7157,
      "МАСКА": 7158,
      "САНУ": 7159,
      "ПЕРЕКА": 7160,
      "БРЕСТЕ": 7161,
      "КРЫЛЬ": 7162,
      "ДОМАМ": 7163,
      "АВВГ": 7164,
      "КУЛЬТИВА": 7165,
      "АМИНО": 7166,
      "ЧАПАЕВА": 7167,
      "ЩУЧИНСКАЯ": 7168,
      "ГМ": 7169,
      "НИН": 7170,
      "СКОВ": 7171,
      "ЗИРУ": 7172,
      "СТАВКИ": 7173,
      "ОСНОВНОЙ": 7174,
      "ПЕРИФЕ": 7175,
      "НЕФТЕПРОДУКТОВ": 7176,
      "ПРИЛАГАЮТСЯ": 7177,
      "УПЛОТНЕНИЯ": 7178,
      "ЩЕЛОЧНОЕ": 7179,
      "БОЧКА": 7180,
      "СТИЛ": 7181,
      "ВУЮ": 7182,
      "КЛЕМ": 7183,
      "ШКАФЫ": 7184,
      "ДОРОЖНОГО": 7185,
      "ДЮЙ": 7186,
      "MANN": 7187,
      "ОТВЕРСТИЯ": 7188,
      "ОЧИСТИТЕЛЬ": 7189,
      "ПРЕТЕНДЕНТА": 7190,
      "КОМПОНЕНТОВ": 7191,
      "НИЛ": 7192,
      "СИСТЕМЕ": 7193,
      "ОБРАБОТКА": 7194,
      "КОНСУЛЬТА": 7195,
      "ВНЫМ": 7196,
      "РЕСТАВ": 7197,
      "МУН": 7198,
      "КАРБА": 7199,
      "STRI": 7200,
      "ТРАКТОРА": 7201,
      "ЕМЫМИ": 7202,
      "ВЕЩЕСТВО": 7203,
      "ЖУРНА": 7204,
      "ДОИЛЬНО": 7205,
      "ШТУКАТУРКА": 7206,
      "ГРАДУ": 7207,
      "ВОЗМОЖНОСТЬЮ": 7208,
      "ГАРД": 7209,
      "ТОРГОВОГО": 7210,
      "XDSL": 7211,
      "ПОКСИ": 7212,
      "ЗАПИ": 7213,
      "ЩАТЕЛЬ": 7214,
      "НИЗАЦИИ": 7215,
      "СЕЛЬСОВЕТА": 7216,
      "ИМЕЕТ": 7217,
      "ЛИСТЫ": 7218,
      "ПЕРЕХОДНАЯ": 7219,
      "РАСТИТЕЛЬНОГО": 7220,
      "LC": 7221,
      "ГОСУДАРСТВЕННОМ": 7222,
      "ОХРАНА": 7223,
      "FER": 7224,
      "УР": 7225,
      "ЛИС": 7226,
      "ДОШКОЛЬНОГО": 7227,
      "ЦЕНТРАЛЬНЫЙ": 7228,
      "ФОРТЕ": 7229,
      "АНТИКОРРО": 7230,
      "СТОЙКИ": 7231,
      "ОПРЕДЕЛЕНИЕ": 7232,
      "НАЛИЧ": 7233,
      "СОЕДИНЕНИЙ": 7234,
      "БЕЗОПАСНОСТЬ": 7235,
      "КОНТЕЙНЕРЫ": 7236,
      "НОМИНАЛЬНАЯ": 7237,
      "АЛМАЗ": 7238,
      "КВАРТАЛА": 7239,
      "ЦЕМЕНТНАЯ": 7240,
      "СВЕТЛОГОРСКХИМВОЛОКНО": 7241,
      "ПОКУПАТЕЛЯ": 7242,
      "ДЕФЕКТОВ": 7243,
      "ВАК": 7244,
      "ДВ": 7245,
      "ХВОЙ": 7246,
      "ШЛИФ": 7247,
      "ЛЬНОМ": 7248,
      "ТОРЕ": 7249,
      "НЕМ": 7250,
      "ВЫДЕЛЕНИЯ": 7251,
      "ЖИЛАЯ": 7252,
      "СЫЛА": 7253,
      "ЧИСТКИ": 7254,
      "СОСТОЯНИИ": 7255,
      "ЗАПРОСУ": 7256,
      "ТЕМПЕРАТУРОЙ": 7257,
      "ФЛЕКС": 7258,
      "ФЛУО": 7259,
      "МЕЛИОРАТИВНОЙ": 7260,
      "УСИЛЕННЫЙ": 7261,
      "ИНСПЕКЦИИ": 7262,
      "ЛОДЖИЙ": 7263,
      "ГУП": 7264,
      "ЛЯН": 7265,
      "ФИРМА": 7266,
      "УКХ": 7267,
      "DAN": 7268,
      "ОКРАСКА": 7269,
      "ПОГРУЗО": 7270,
      "ВОРОВСКОГО": 7271,
      "ЗАСТЕ": 7272,
      "ПОДСОЛНЕ": 7273,
      "ПЕРЕКЛЮЧА": 7274,
      "ТЕХНИЧЕСКОМ": 7275,
      "СНОС": 7276,
      "ВИТЕБСКИЕ": 7277,
      "ЛИЗИНГОДА": 7278,
      "ПРЕДНАЗНАЧЕ": 7279,
      "ФИЗИКО": 7280,
      "ИЗМЕНЕНИЙ": 7281,
      "ЛАБОРАТОРИИ": 7282,
      "ЗАБОЛЕ": 7283,
      "HZ": 7284,
      "ЛОВОГО": 7285,
      "ИНЫЕ": 7286,
      "ЛАКО": 7287,
      "ВЕСОВОЙ": 7288,
      "ОБЕД": 7289,
      "ДОБАВОК": 7290,
      "СОГЛАСОВАНИЮ": 7291,
      "КОНДИТЕРСКАЯ": 7292,
      "ИГЛЫ": 7293,
      "LENO": 7294,
      "МИЛКАВИТА": 7295,
      "EPS": 7296,
      "СТАРЕ": 7297,
      "ГРАММ": 7298,
      "ГУТ": 7299,
      "ФУТЕ": 7300,
      "НАСОСНЫЙ": 7301,
      "МИНИСТЕРСТВО": 7302,
      "ТРЕХСЛОЙ": 7303,
      "ВКЛЮЧАТЬ": 7304,
      "ВЫПОЛНИТЬ": 7305,
      "УФ": 7306,
      "ПЕРВОГО": 7307,
      "AST": 7308,
      "АМОР": 7309,
      "НИЛИ": 7310,
      "ЛАТЕКС": 7311,
      "ОБОРУДОВАНИЮ": 7312,
      "РЕЗИНОВАЯ": 7313,
      "ТЕРАПЕ": 7314,
      "ИНФЕКЦИИ": 7315,
      "ДИСКОВАЯ": 7316,
      "ИСКЛЮЧЕНИЕМ": 7317,
      "НАХОДЯЩИХСЯ": 7318,
      "DR": 7319,
      "NEXT": 7320,
      "PP": 7321,
      "КОНИЧЕ": 7322,
      "ЛАЗЕРНЫЙ": 7323,
      "ДОВОЗ": 7324,
      "МЕРО": 7325,
      "СОЧНАЯ": 7326,
      "КОМБИНЕ": 7327,
      "КОНФИГУ": 7328,
      "INC": 7329,
      "ТУРБИН": 7330,
      "MOBI": 7331,
      "ПОРТАТИВНЫЙ": 7332,
      "БОБРУЙСКАГРОМАШ": 7333,
      "GN": 7334,
      "IUS": 7335,
      "URE": 7336,
      "АНЕ": 7337,
      "ЗНОЙ": 7338,
      "ТЕСТЫ": 7339,
      "МЕННЫЙ": 7340,
      "БРЕН": 7341,
      "СВЕТА": 7342,
      "СРОКИ": 7343,
      "БЕСЦВЕТ": 7344,
      "ТУБЕРКУЛЕЗНЫЙ": 7345,
      "ЧЕРТЕЖАМ": 7346,
      "РОССИЙСКАЯ": 7347,
      "ТАМОЖЕННОГО": 7348,
      "STIHL": 7349,
      "ПОДЛЕЖА": 7350,
      "ИСПАНИЯ": 7351,
      "IV": 7352,
      "ТШ": 7353,
      "PET": 7354,
      "РАЗА": 7355,
      "ДАТА": 7356,
      "ПОЛНОЙ": 7357,
      "КОМБИКОРМ": 7358,
      "ENTER": 7359,
      "ХИМТОРГ": 7360,
      "ВЕРТИКАЛЬНЫЙ": 7361,
      "ОХРАННОЙ": 7362,
      "DRA": 7363,
      "ZER": 7364,
      "НБ": 7365,
      "УДАР": 7366,
      "ЯМ": 7367,
      "РЕЦ": 7368,
      "СУСПЕН": 7369,
      "ЧАТОГО": 7370,
      "ДЕЙСТВУЮЩИМ": 7371,
      "МАРКИРОВКА": 7372,
      "ИСКУССТВЕННАЯ": 7373,
      "ПОНИЖЕННЫХ": 7374,
      "ФИЛАМЕНТ": 7375,
      "ОБРАЗОВАНИЮ": 7376,
      "FOOD": 7377,
      "ОСЕ": 7378,
      "ICS": 7379,
      "ЛИСТУ": 7380,
      "БИОЛОГИЧЕ": 7381,
      "ЗАМОРОЖЕННОЕ": 7382,
      "НОМИНАЛЬНОЕ": 7383,
      "БЕЛЫНИ": 7384,
      "РЫЧАГ": 7385,
      "КАПИЛЛЯ": 7386,
      "ЛОМА": 7387,
      "ЭЛЕВА": 7388,
      "ЗАВОДСКАЯ": 7389,
      "ТЕЛЕВИ": 7390,
      "ГОРКА": 7391,
      "ОЛЕЧЕНИЯ": 7392,
      "ВНИ": 7393,
      "ОПАС": 7394,
      "ШТИ": 7395,
      "БИНО": 7396,
      "ЗОНЕ": 7397,
      "СЛЕДОВАНИЯ": 7398,
      "СЕНЬ": 7399,
      "ЗАДНЯЯ": 7400,
      "БУТЫЛКА": 7401,
      "ВЫПОЛНЕННЫХ": 7402,
      "ПЕРЕДВИЖНОЙ": 7403,
      "ЕЕ": 7404,
      "ЯИ": 7405,
      "ДОКШИ": 7406,
      "СЛОНИМСКАЯ": 7407,
      "ИНФРАСТРУКТУРЫ": 7408,
      "ДИАПАЗОН": 7409,
      "ФОБ": 7410,
      "НАЛОГО": 7411,
      "ПРОСП": 7412,
      "ПАЛЬ": 7413,
      "ПОДПИСА": 7414,
      "ПЕРЕС": 7415,
      "ОСУЩЕСТВЛЕНИЯ": 7416,
      "ОСУЩЕСТВЛЕНИЕ": 7417,
      "ХИМИЧЕСКИХ": 7418,
      "ДОСТАВКОЙ": 7419,
      "ТЕПЛОИЗОЛЯЦИОННЫЕ": 7420,
      "НАМОТКА": 7421,
      "КОЛОДЦЕВ": 7422,
      "ЩИН": 7423,
      "МОТО": 7424,
      "КОММУНАЛЬНИК": 7425,
      "ОЛИМПИ": 7426,
      "ЭКРАНА": 7427,
      "ГОСТИ": 7428,
      "ПОИ": 7429,
      "ПРИБОРА": 7430,
      "ПОДБОР": 7431,
      "STAND": 7432,
      "МНОГОЭТАЖ": 7433,
      "РЕЗИДЕНТ": 7434,
      "ОЧИСТНЫХ": 7435,
      "ПРОТИВОТУБЕРКУЛЕЗНЫЙ": 7436,
      "FIG": 7437,
      "АВТОБУСОВ": 7438,
      "ФИКСАЦИИ": 7439,
      "РАЗРЫВНАЯ": 7440,
      "ВИДЕТЕЛЬСТВО": 7441,
      "LENOVO": 7442,
      "ВОДНО": 7443,
      "СЕРВО": 7444,
      "БЕЛОМО": 7445,
      "НАВИГА": 7446,
      "EG": 7447,
      "ZAK": 7448,
      "ЕРО": 7449,
      "ВОЗБУ": 7450,
      "СВИНИНЫ": 7451,
      "АТМО": 7452,
      "ИСТОЧНИКА": 7453,
      "СПЕКТРО": 7454,
      "РАЗМЕЩЕНИЯ": 7455,
      "БАКТЕРИЦИД": 7456,
      "ВХОДИТ": 7457,
      "ПЕРЕПЛЕТ": 7458,
      "ВЫДАЧЕЙ": 7459,
      "МАЗУ": 7460,
      "ГРОПРОМБАНК": 7461,
      "ОЛИМПИЙ": 7462,
      "ГОРИЯ": 7463,
      "ВОЧНОЙ": 7464,
      "ЗАКЛАД": 7465,
      "МЫЛО": 7466,
      "КОМБИКОРМА": 7467,
      "ПАРАЛЛЕ": 7468,
      "ПАСПОРТ": 7469,
      "ASS": 7470,
      "МИНСКУ": 7471,
      "РАССВЕТ": 7472,
      "СУХОГО": 7473,
      "CN": 7474,
      "LAN": 7475,
      "ЦУ": 7476,
      "ЧЬЕ": 7477,
      "РОТ": 7478,
      "МЕРА": 7479,
      "ГАЗЕЛЬ": 7480,
      "УЧЁ": 7481,
      "ХОДЕ": 7482,
      "ПЕРЕМЫ": 7483,
      "ОДНИМ": 7484,
      "ПОЛОЖИ": 7485,
      "АНТИСЛЕЖИ": 7486,
      "СМОТРО": 7487,
      "MAC": 7488,
      "ГРУНТА": 7489,
      "НЕЙРОХИРУРГИИ": 7490,
      "СКВАЖИНЫ": 7491,
      "СОН": 7492,
      "РЕСПУБЛИКЕ": 7493,
      "ШКОЛЬНИК": 7494,
      "ТД": 7495,
      "ФЕНИ": 7496,
      "ЛАГЕ": 7497,
      "СЕРЫ": 7498,
      "БАТ": 7499,
      "ТЫЛА": 7500,
      "ТРАТ": 7501,
      "CODE": 7502,
      "ПЕТЛЯ": 7503,
      "ЦИЛИНДРЫ": 7504,
      "ГАРАЖА": 7505,
      "ТРЕНАЖЕР": 7506,
      "ХОЙНИК": 7507,
      "КОВРЫ": 7508,
      "БЕЛАГРОПРОМБАНК": 7509,
      "ЧИСТКА": 7510,
      "МЕХАНИЗИРОВАННАЯ": 7511,
      "ЙНОЙ": 7512,
      "РИДИ": 7513,
      "МОНТАЖНАЯ": 7514,
      "ЭЛЕКТРОЛИ": 7515,
      "ГОРРЕМ": 7516,
      "ДОСТАВКУ": 7517,
      "ДОЗАТОР": 7518,
      "ГЕРМЕТИЧНОСТИ": 7519,
      "АВТОБУС": 7520,
      "ПИК": 7521,
      "УЛИЦА": 7522,
      "СПЛО": 7523,
      "УДЛИН": 7524,
      "ЛОТА": 7525,
      "БАКА": 7526,
      "БРЕСТГОРРЕМ": 7527,
      "НЕЙТРА": 7528,
      "СМЕША": 7529,
      "ТИЗАТОР": 7530,
      "МОДУЛЕМ": 7531,
      "РАСПРЕДЕЛИ": 7532,
      "РАДИАТОР": 7533,
      "МСФО": 7534,
      "НЕВРОЛОГИИ": 7535,
      "РЕСПИРАТОР": 7536,
      "БРЕСТГОРРЕМСТРОЙТРЕСТ": 7537,
      "РОВЫЙ": 7538,
      "ОБЕЗЖИ": 7539,
      "ПОЗДНЕЕ": 7540,
      "RAM": 7541,
      "СЕД": 7542,
      "СТОР": 7543,
      "МЫТЬЯ": 7544,
      "РАСПОЛОЖЕННОМ": 7545,
      "ЛЕТНИЙ": 7546,
      "ИНФОРМАЦИЯ": 7547,
      "КХП": 7548,
      "ТРУБОПРОВОД": 7549,
      "ПОЛИПРОПИЛЕНОВЫЕ": 7550,
      "КАТЕГОРИЯ": 7551,
      "ЖЛОБИНСКАЯ": 7552,
      "ЖЛОБИНСКИЙ": 7553,
      "ОФСЕТ": 7554,
      "ГОФРОЯЩИК": 7555,
      "КУЗОВА": 7556,
      "ИНФУЗИЙ": 7557,
      "ДРЕВЕСИНЫ": 7558,
      "САНУЗ": 7559,
      "ЛМ": 7560,
      "МОЛОЧНЫЕ": 7561,
      "ЯЧ": 7562,
      "СИЛАМИ": 7563,
      "ОТРА": 7564,
      "СТОПОР": 7565,
      "ЭЛЕКТРОННЫЕ": 7566,
      "МЕТРИН": 7567,
      "ПОЗВО": 7568,
      "ФИЛЬТРОВА": 7569,
      "БОРОВЛЯНЫ": 7570,
      "ВОПРОСАМ": 7571,
      "АЯ": 7572,
      "OCH": 7573,
      "ПНАИМЕНОВАНИЕ": 7574,
      "ХЛА": 7575,
      "ЛАКТА": 7576,
      "ВИДОВ": 7577,
      "МИЦИН": 7578,
      "СУШКИ": 7579,
      "ХАЛАТ": 7580,
      "ОСНОВА": 7581,
      "НАРУЖНЫМ": 7582,
      "РАДИАЦИОННОЙ": 7583,
      "ПРОТРАВИТЕЛЬ": 7584,
      "ЯРЛЫ": 7585,
      "MULTI": 7586,
      "ОДНОГО": 7587,
      "ПРОДУКТЫ": 7588,
      "ЦБУ": 7589,
      "ПОГРУЗКА": 7590,
      "СТРОБИН": 7591,
      "ФИОЛЕ": 7592,
      "ПУП": 7593,
      "ИЗОГНУ": 7594,
      "ЭЛЕКТРОДЫ": 7595,
      "ПИТЬЕВОГО": 7596,
      "ГРАНУЛИРОВАННЫЙ": 7597,
      "СПЛОШ": 7598,
      "КОЗЫ": 7599,
      "МОГИЛЕВА": 7600,
      "PACK": 7601,
      "АКТУ": 7602,
      "ЭКИ": 7603,
      "ЛЬНОСТИ": 7604,
      "ОТХОД": 7605,
      "БААЗ": 7606,
      "ЦЕНЫ": 7607,
      "МЫКА": 7608,
      "РАСЧЕТА": 7609,
      "МЕТРУ": 7610,
      "АММИ": 7611,
      "ЗАПАДХИМТОРГ": 7612,
      "ОФИС": 7613,
      "ИНДУСТРИ": 7614,
      "ПАВЛОВА": 7615,
      "СПРЕЙ": 7616,
      "ENDER": 7617,
      "МЯСНИКОВА": 7618,
      "ФИН": 7619,
      "ВАЕМОЙ": 7620,
      "СООБ": 7621,
      "ПИЛА": 7622,
      "РАБОЧЕГО": 7623,
      "СТЕНОВОЕ": 7624,
      "МЕННО": 7625,
      "ОРГ": 7626,
      "ММШТ": 7627,
      "БЕЛЛАКТ": 7628,
      "КВАРТИРЫ": 7629,
      "УКАЗАННЫХ": 7630,
      "ИНСТРУКЦИИ": 7631,
      "ОКОНЧА": 7632,
      "ПРЕОБРАЗОВАТЕЛЯ": 7633,
      "ТОПЛИВО": 7634,
      "ПОДДЕРЖКИ": 7635,
      "ОТНОШЕНИИ": 7636,
      "ОБЛОЖКИ": 7637,
      "ТЕРАПЕВ": 7638,
      "НАК": 7639,
      "ЛЕЧЕБНО": 7640,
      "НАГРУ": 7641,
      "ЛИТЬЕ": 7642,
      "ICK": 7643,
      "ОБРЕЗ": 7644,
      "ОБРАБОТА": 7645,
      "ВЫБРО": 7646,
      "ВЫХОДОВ": 7647,
      "ВАННАЯ": 7648,
      "ЖЕЛА": 7649,
      "КЦИЮ": 7650,
      "ТРЕБОВАНИЕ": 7651,
      "ПОЛУПРИЦЕ": 7652,
      "ПОТРЕБНОСТЬ": 7653,
      "BOSCH": 7654,
      "БРОД": 7655,
      "КШ": 7656,
      "ТЕЧЕНИИ": 7657,
      "ПИОНЕР": 7658,
      "ДУШЕ": 7659,
      "ПЕРЕКИ": 7660,
      "ФАК": 7661,
      "ЗНАКОВ": 7662,
      "НАНЕСЕНИЕ": 7663,
      "СВАРЩИКА": 7664,
      "SUPER": 7665,
      "СИНТЕТИЧЕСКИЙ": 7666,
      "ОПРОСНОМУ": 7667,
      "СКВАЖИН": 7668,
      "ЗАЗЕМЛЕНИЯ": 7669,
      "СВАРОЧНЫЙ": 7670,
      "TW": 7671,
      "ПБ": 7672,
      "ЗАКАЗА": 7673,
      "АСКОР": 7674,
      "ВПРАВЕ": 7675,
      "ЕМО": 7676,
      "УСТ": 7677,
      "ТОЧКИ": 7678,
      "СОБОЙ": 7679,
      "ВЕДУ": 7680,
      "ДИСКА": 7681,
      "ПРЕВЫ": 7682,
      "ПОЛНЕН": 7683,
      "ГУЗ": 7684,
      "АУДИО": 7685,
      "БОРИСОВСКОГО": 7686,
      "ПОЛИПРОПИЛЕНОВЫЙ": 7687,
      "СОЛИГОРСК": 7688,
      "ОГРАЖДЕНИЙ": 7689,
      "СПЕЦИАЛИЗИРОВАННЫЙ": 7690,
      "ВАРЕНО": 7691,
      "ОСТРОВЕЦ": 7692,
      "ФАРТУК": 7693,
      "ТТ": 7694,
      "ПРОИЗВОДСТВЕННЫЙ": 7695,
      "МАКСИМАЛЬНАЯ": 7696,
      "НАКЛО": 7697,
      "ПРЕДПОЧ": 7698,
      "РАЗВЕТ": 7699,
      "ПРОИЗВОДСТВЕННОЙ": 7700,
      "МОЛОКЕ": 7701,
      "СВАРНОЙ": 7702,
      "ЧУГУННАЯ": 7703,
      "ЭКОНОМИЧЕСКОГО": 7704,
      "ЗАГРЯЗНЕНИЙ": 7705,
      "ПЛЕМЗАВОД": 7706,
      "БЫХОВ": 7707,
      "ГИМНА": 7708,
      "ИНВЕР": 7709,
      "ПРЕДЕ": 7710,
      "ЧАТКА": 7711,
      "ДУШИ": 7712,
      "РАЙОННОЕ": 7713,
      "КЛЕТОК": 7714,
      "РЕМКОМПЛЕКТ": 7715,
      "ПОВЕРКИ": 7716,
      "СТАНДАРТНЫЙ": 7717,
      "ТРЕХФАЗНЫЙ": 7718,
      "КАБИНЕТА": 7719,
      "БИТУМНО": 7720,
      "ГОГОЛЯ": 7721,
      "БКМ": 7722,
      "ВАВИ": 7723,
      "ВЫКУПА": 7724,
      "ТРАНСПЛАН": 7725,
      "DB": 7726,
      "FU": 7727,
      "НОЛ": 7728,
      "РУЧКОЙ": 7729,
      "МИКО": 7730,
      "СЕЗОН": 7731,
      "ПЛЕКС": 7732,
      "СТРОИТЕЛЬНОЕ": 7733,
      "STR": 7734,
      "ВЗРОС": 7735,
      "BOOK": 7736,
      "ГЕРМЕТИК": 7737,
      "КЛИМОВИЧИ": 7738,
      "ПРЕДМЕТУ": 7739,
      "ОРАНЖЕ": 7740,
      "ПОЛИЭФИРНАЯ": 7741,
      "ИНГРЕДИЕНТОВ": 7742,
      "ОПАСНОСТИ": 7743,
      "ЕКО": 7744,
      "ДОТИШКИ": 7745,
      "ПИНСКЕ": 7746,
      "ПЕРЕРАБОТКЕ": 7747,
      "ТЕПЛИЧНОЕ": 7748,
      "ШВОВ": 7749,
      "ЭПОКСИ": 7750,
      "КАБИН": 7751,
      "РУЧНЫМ": 7752,
      "ХОРО": 7753,
      "ФОРА": 7754,
      "ГРУЗОПОДЪЁМ": 7755,
      "ЗАПОРНО": 7756,
      "ЛАБОРАТОРНЫЙ": 7757,
      "СВЕТИЛЬНИКИ": 7758,
      "АДРЕСАМ": 7759,
      "ЛЬНЯ": 7760,
      "ДАБРА": 7761,
      "МИХА": 7762,
      "МКК": 7763,
      "ПРУЖАНСКАЯ": 7764,
      "TON": 7765,
      "ОЛЬ": 7766,
      "США": 7767,
      "СОДА": 7768,
      "СКАНЕР": 7769,
      "БУРО": 7770,
      "ГИДРАТ": 7771,
      "ОПЫТНЫХ": 7772,
      "КОНСОЛИДИ": 7773,
      "ДИВ": 7774,
      "ВЫПОЛНЕНИЮ": 7775,
      "ГОРЬЕ": 7776,
      "ОПРЕДЕЛЕ": 7777,
      "ДАБРАБЫТ": 7778,
      "БСС": 7779,
      "ВЧЕНКО": 7780,
      "МР": 7781,
      "НСКОЙ": 7782,
      "РОЧС": 7783,
      "РЕЗЕ": 7784,
      "МАРОК": 7785,
      "ВЫСЫЛА": 7786,
      "ПИР": 7787,
      "КЛИПСА": 7788,
      "АКТИВНОЙ": 7789,
      "ВНУТР": 7790,
      "ТРЁХ": 7791,
      "ЭНГЕЛЬ": 7792,
      "БЕРЕСТОВИЦА": 7793,
      "ПРАЙС": 7794,
      "ОРЛОВСКОГО": 7795,
      "СПУТ": 7796,
      "ГАНЦЕВИЧИ": 7797,
      "ВАВИЛОВА": 7798,
      "SB": 7799,
      "ЖЕНИЙ": 7800,
      "ОФИЦИ": 7801,
      "МАЛОГО": 7802,
      "ЧИСТО": 7803,
      "РЕМОНТНЫХ": 7804,
      "ARE": 7805,
      "УЧАСТНИК": 7806,
      "ВКУСО": 7807,
      "ХОЛОДИЛЬНАЯ": 7808,
      "ДИЗЕЛЬНЫЙ": 7809,
      "СМАЗКИ": 7810,
      "ГОМЕЛЬОБЛНЕФТЕПРОДУКТ": 7811,
      "МОДИФИЦИ": 7812,
      "ГЛУБОКОЗАМОРОЖЕННАЯ": 7813,
      "ЭНГЕЛЬСА": 7814,
      "ИВАНОВО": 7815,
      "PCI": 7816,
      "ВВГ": 7817,
      "ЮРИДИ": 7818,
      "ТЕРО": 7819,
      "СОЗРЕ": 7820,
      "DEL": 7821,
      "ПЕРЕГРУЗКИ": 7822,
      "НЕОБХОДИМЫЕ": 7823,
      "МЛН": 7824,
      "ПОДАЧА": 7825,
      "ОШМЯНЫ": 7826,
      "ТРУДОВОГО": 7827,
      "ИНТЕРЕСАХ": 7828,
      "МАГАЗИНА": 7829,
      "IE": 7830,
      "ЛМЗ": 7831,
      "ОЙ": 7832,
      "ВАФЕ": 7833,
      "КОНСО": 7834,
      "ОБЩЕЕ": 7835,
      "АППАРАТУ": 7836,
      "НАРУЖНАЯ": 7837,
      "ВКУС": 7838,
      "КРУГЛОГО": 7839,
      "МАКСИМАЛЬНЫЙ": 7840,
      "ПОДОШВЫ": 7841,
      "AV": 7842,
      "СЛОБО": 7843,
      "КАНЦЕ": 7844,
      "ЛАНД": 7845,
      "ИНДУСТРИА": 7846,
      "ВТОР": 7847,
      "ИГЛО": 7848,
      "КЮ": 7849,
      "ОЗА": 7850,
      "УДЕ": 7851,
      "НАПЛА": 7852,
      "КАО": 7853,
      "ВЕЦ": 7854,
      "НЕТКА": 7855,
      "ПАЛЛЕТ": 7856,
      "МАРТА": 7857,
      "ЗНАМЕНИ": 7858,
      "КИСЛОРОДА": 7859,
      "ОБЯЗАТЕЛЬНЫМ": 7860,
      "ПОВТОР": 7861,
      "ПШЕНИЧНАЯ": 7862,
      "СТАЦИОНАРНЫЙ": 7863,
      "УДОБРЕНИЕ": 7864,
      "ВКЛЮЧЕНЫ": 7865,
      "ВМЕСТИМОСТЬЮ": 7866,
      "АНТИБАКТЕРИАЛЬНЫЙ": 7867,
      "ДИЧИ": 7868,
      "ГИБРИДНЫЙ": 7869,
      "ТОРГОВЫЙ": 7870,
      "ПАЛЕЦ": 7871,
      "КОМПЛЕКТНАЯ": 7872,
      "ТРАНСФУ": 7873,
      "КРОМКА": 7874,
      "ТКАНЕЙ": 7875,
      "ДОКУМЕНТАЦИЮ": 7876,
      "ОПЕРАЦИЙ": 7877,
      "АУДИТОРСКОЙ": 7878,
      "СТОЛОВОЙ": 7879,
      "YL": 7880,
      "ХВ": 7881,
      "ТОМО": 7882,
      "ТИСН": 7883,
      "ЧЕСКОМУ": 7884,
      "ICE": 7885,
      "ИЗВЕСТ": 7886,
      "ШТЫ": 7887,
      "СТРОИТЕЛЬНАЯ": 7888,
      "ПЕРЕМЕННОГО": 7889,
      "КАБЕЛЕМ": 7890,
      "МОЛОЧНЫХ": 7891,
      "КЛАПАНОВ": 7892,
      "ЛИНЕЙНАЯ": 7893,
      "ОРИГИНАЛЬНЫЕ": 7894,
      "ЗАМКОМ": 7895,
      "ПОДОШВЕ": 7896,
      "ПОДЗЕМНЫХ": 7897,
      "ДИСПЕРСИОН": 7898,
      "ШПАТЛЕВКА": 7899,
      "БЕРЕЗИН": 7900,
      "УНИТА": 7901,
      "ЖЕННОГО": 7902,
      "ОРИЕНТИРОВОЧНЫЙ": 7903,
      "ОСМО": 7904,
      "ТКП": 7905,
      "ШТОР": 7906,
      "ЗАВИСИМОСТИ": 7907,
      "НЕПРОНИЦАЕМАЯ": 7908,
      "ЖИГА": 7909,
      "ПРОЕК": 7910,
      "КРОСС": 7911,
      "ОРГАНИЗАЦИЯМ": 7912,
      "ПОЛОСА": 7913,
      "РАЗМЕРОВ": 7914,
      "ЛИЗИНГОВОЙ": 7915,
      "ВКЛЮЧАЕТ": 7916,
      "ИЗМЕРИТЕЛЬНЫЙ": 7917,
      "ОФИСНАЯ": 7918,
      "ТЕПЛООБМЕННИКА": 7919,
      "СВЕТИЛЬНИКОВ": 7920,
      "РИСУНОК": 7921,
      "ЗАСЛОНКА": 7922,
      "ПРОКА": 7923,
      "ЧАУС": 7924,
      "ИЗГОТОВИТЕЛЯ": 7925,
      "СПЕЦИАЛИЗИРОВАННОЕ": 7926,
      "МОГИЛЁВСКИЙ": 7927,
      "ДНЫХ": 7928,
      "ЖЁ": 7929,
      "ПОРИ": 7930,
      "ПОГРУЗКИ": 7931,
      "ОТСЕ": 7932,
      "ШИР": 7933,
      "АВТОЗАПЧАСТИ": 7934,
      "ЛИЗАЦИЯ": 7935,
      "ШЕМ": 7936,
      "ATLAS": 7937,
      "ТЕРМОМЕТР": 7938,
      "ГРАНУ": 7939,
      "ФЛОКСА": 7940,
      "ФИКСАТОР": 7941,
      "ПРЕДУСМОТРЕТЬ": 7942,
      "ТРАНСПОРТНУЮ": 7943,
      "ДЕКАБРЬ": 7944,
      "АПРЕ": 7945,
      "НИРОВАНИЯ": 7946,
      "ВАЕМЫХ": 7947,
      "ЗОВЫЙ": 7948,
      "ТУАЛЕ": 7949,
      "БУФЕР": 7950,
      "ПТИЦ": 7951,
      "ДАТЧИКОМ": 7952,
      "БУХГАЛТЕРСКОГО": 7953,
      "ФАЙЛЫ": 7954,
      "MINI": 7955,
      "УСТАНОВЛЕННОГО": 7956,
      "ПРУЖАНЫ": 7957,
      "ШЛИФОВАЛЬНЫЙ": 7958,
      "ДРУГИХ": 7959,
      "УТВЕРЖДЕННЫМ": 7960,
      "БАРАБАНА": 7961,
      "ELECTR": 7962,
      "ПОДРАЗДЕЛЕНИЙ": 7963,
      "ЛИЗИНГОДАТЕЛЯ": 7964,
      "ЯЩИЙ": 7965,
      "ПЕЧЬ": 7966,
      "ДИРЕ": 7967,
      "ОТРЕЗ": 7968,
      "ФОРЗА": 7969,
      "СНАБЖЕНИЮ": 7970,
      "ОКРУЖА": 7971,
      "СМР": 7972,
      "ЛАМИНА": 7973,
      "РЕАЛЬНОГО": 7974,
      "ВСТРОЕННЫЙ": 7975,
      "КОРОВНИКОВ": 7976,
      "РАЗЛИЧНЫХ": 7977,
      "ТИПОГРАФИИ": 7978,
      "ZZ": 7979,
      "РАХ": 7980,
      "ПУТЕ": 7981,
      "СПМК": 7982,
      "ДОЛГИ": 7983,
      "ЛИВНЕ": 7984,
      "РИТА": 7985,
      "КУХО": 7986,
      "ПРИМА": 7987,
      "ПУАН": 7988,
      "ЦЕНОВЫХ": 7989,
      "ПОЛЕСЬЕСТРОЙ": 7990,
      "КВАЛИФИКАЦИИ": 7991,
      "ДАЛЬНЕЙ": 7992,
      "КАПУСТА": 7993,
      "СЕБЯ": 7994,
      "СТОЛБЦЫ": 7995,
      "ВИДАМ": 7996,
      "SAL": 7997,
      "ЯЩЕЙ": 7998,
      "НАКЛЕЙ": 7999,
      "ТОКС": 8000,
      "БОКОВЫХ": 8001,
      "ТЕЛЬНЫМ": 8002,
      "КЕТ": 8003,
      "РАСПАШ": 8004,
      "ТЕРНА": 8005,
      "ПАССАЖИРОВ": 8006,
      "АВТОМОБИЛЯМИ": 8007,
      "КАНАЛИЗАЦИЯ": 8008,
      "ПРОВЕРКА": 8009,
      "ОПЫТНЫЙ": 8010,
      "ПОТОЛКОВ": 8011,
      "ПАЦИЕНТА": 8012,
      "EPSON": 8013,
      "ГИНЕКО": 8014,
      "XX": 8015,
      "ВИЛКА": 8016,
      "ЖИВАНИЯ": 8017,
      "КОНТРА": 8018,
      "СТЕРА": 8019,
      "ТУП": 8020,
      "ОБОЗНАЧЕНИЕ": 8021,
      "ЭЛЕКТРОЭНЕРГИИ": 8022,
      "КОМПЛЕКСНОЙ": 8023,
      "ЗАЩИТНОЙ": 8024,
      "ДВУСТОРОН": 8025,
      "APPLE": 8026,
      "ПЛОТНОСТИ": 8027,
      "СОЛИГОРСКОГО": 8028,
      "ЗАМОРОЖЕННЫЙ": 8029,
      "ПРОНИЦАЕМОСТЬ": 8030,
      "РУКОЯ": 8031,
      "THERMO": 8032,
      "ВЗРЫВОЗАЩИ": 8033,
      "КАРАНДА": 8034,
      "EB": 8035,
      "БУЛ": 8036,
      "ВОЕННЫЙ": 8037,
      "ЛИТЕЙ": 8038,
      "КУПП": 8039,
      "NOL": 8040,
      "ФБС": 8041,
      "ЛЕНИЮ": 8042,
      "НЕПРЕРЫ": 8043,
      "ПОДПИ": 8044,
      "БЕЛЭЛЕКТРОМОНТАЖ": 8045,
      "МАТЕРИАЛЕ": 8046,
      "ЗДАНИЮ": 8047,
      "ФОМ": 8048,
      "НКФО": 8049,
      "МОЗЫРЕ": 8050,
      "ССИЯ": 8051,
      "РЕГУЛИРОВКА": 8052,
      "КОТЛО": 8053,
      "ПОЛИПРОПИЛЕН": 8054,
      "СТРЕТЧ": 8055,
      "BYN": 8056,
      "ФИЗИЧЕСКИХ": 8057,
      "ТЕМПЕРАТУРЕ": 8058,
      "КОНДЕНСАТОР": 8059,
      "PRESS": 8060,
      "ДУБРОВЕН": 8061,
      "ДИСПЕТЧЕРИЗАЦИИ": 8062,
      "ФЕРМ": 8063,
      "AY": 8064,
      "EAS": 8065,
      "ВЕСОВ": 8066,
      "ОБЩИХ": 8067,
      "КУСТАР": 8068,
      "ДИВИ": 8069,
      "СИДЕН": 8070,
      "ФИЛЕ": 8071,
      "СТВЕННОМ": 8072,
      "СТОЧНЫХ": 8073,
      "ARUS": 8074,
      "ПЛИКА": 8075,
      "ГОРЧИ": 8076,
      "БОБРУЙСКЕ": 8077,
      "ТОВАРНОЙ": 8078,
      "ДЕЯТЕЛЬНОСТЬЮ": 8079,
      "ХОЛОДНОЙ": 8080,
      "ИНТЕРФЕЙС": 8081,
      "МИЛ": 8082,
      "БРАЗИ": 8083,
      "ВЕЛИКОЙ": 8084,
      "ПОБЕДИТЕЛЕЙ": 8085,
      "СОСНОВАЯ": 8086,
      "БИЗНЕС": 8087,
      "ТРАНСПЛАНТОЛОГИИ": 8088,
      "VIS": 8089,
      "ЯРО": 8090,
      "ДОЛЕЙ": 8091,
      "КУБИ": 8092,
      "ПИРИ": 8093,
      "МЕНЯ": 8094,
      "ПОДСТАНЦИИ": 8095,
      "ТКАНЕ": 8096,
      "КОЛИЧЕСТВЕННОГО": 8097,
      "ПЛОЩАДО": 8098,
      "ЧЕРТЕЖИ": 8099,
      "МИНЕРАЛОВА": 8100,
      "ЛИЦЕНЗИЙ": 8101,
      "ПРИНТЕРОВ": 8102,
      "НОМИНАЛЬНЫЙ": 8103,
      "ПЛАТФОРМА": 8104,
      "ВКЛЮЧЕНА": 8105,
      "РЕЗЕРВУАРОВ": 8106,
      "ГЕМОСТАЗА": 8107,
      "ПРЕВЫША": 8108,
      "ПРЕДПОЧТИ": 8109,
      "КРЕА": 8110,
      "СПЕЦИАЛЬНОГО": 8111,
      "СВЕТЛОГОРСКАЯ": 8112,
      "HSTAN": 8113,
      "REN": 8114,
      "ЛИЦ": 8115,
      "СОЗДАНИЕ": 8116,
      "ПЕСКА": 8117,
      "ПРЕСТАРЕ": 8118,
      "ПРИСТРОЙ": 8119,
      "КОВРИ": 8120,
      "ТИЧЕСКИМ": 8121,
      "BIT": 8122,
      "STE": 8123,
      "СПЕЦИФИКАЦИЯ": 8124,
      "ДИАМ": 8125,
      "НЕФТЯ": 8126,
      "ПРЕДОСТАВЛЕНИЮ": 8127,
      "ОПРЕДЕ": 8128,
      "СТЕРИЛИЗАТОР": 8129,
      "НИЗКОГО": 8130,
      "ЗОНД": 8131,
      "АЛЬТЕРНА": 8132,
      "ЖИМНОЙ": 8133,
      "ОБРАЗУ": 8134,
      "СТРЕПТО": 8135,
      "ГРАНУЛ": 8136,
      "МАШИНЕ": 8137,
      "ЧИТЕЛЬНО": 8138,
      "МАСТИКА": 8139,
      "НЕДЕЛЮ": 8140,
      "BECKMAN": 8141,
      "ПРЕСТАРЕЛЫХ": 8142,
      "ГРЕС": 8143,
      "НИКОЛЬ": 8144,
      "РЕЗЕРВА": 8145,
      "РНК": 8146,
      "ЯЩЕЕ": 8147,
      "ДИТЕЛЯ": 8148,
      "ЧАСОВОЙ": 8149,
      "ЛЮЦЕР": 8150,
      "ЗАЩИТНОГО": 8151,
      "ГРУЗОПАССАЖИРСКИЙ": 8152,
      "UNI": 8153,
      "ФАЙЛА": 8154,
      "ПРЕДСТАВИТЕЛЬ": 8155,
      "МНОГОФУНКЦИОНАЛЬНОГО": 8156,
      "ГОРИЗОНТАЛЬНЫЙ": 8157,
      "ВЫПОЛНЕННОГО": 8158,
      "РЕАКТИ": 8159,
      "НОВОГРУДОК": 8160,
      "НЕМЕЦКОЙ": 8161,
      "БИОПСИ": 8162,
      "ЭМУЛЬГАТОР": 8163,
      "ЗНАЯ": 8164,
      "МВТ": 8165,
      "СВЕРХ": 8166,
      "ШАГ": 8167,
      "ТАРЫ": 8168,
      "ПЛОСКО": 8169,
      "ПВД": 8170,
      "СЛИВО": 8171,
      "ХОЛОДНОГО": 8172,
      "РУЛОНАХ": 8173,
      "ДЫХАТЕЛЬНЫЙ": 8174,
      "ЖИТКОВИЧИ": 8175,
      "РАЗВЕТВИТЕЛЬ": 8176,
      "ЕВАЯ": 8177,
      "МКГ": 8178,
      "ЛИРУЮЩИЙ": 8179,
      "МАСЛИ": 8180,
      "СТАДА": 8181,
      "СЛАД": 8182,
      "НИЗКОЙ": 8183,
      "API": 8184,
      "АГРЕГАТОВ": 8185,
      "СОФТ": 8186,
      "ТЕПЛООБМЕННИК": 8187,
      "ПОДТВЕРЖДАТЬСЯ": 8188,
      "ВЫТЯЖНОЙ": 8189,
      "BELARUS": 8190,
      "КОМБИНЕЗОН": 8191,
      "БССР": 8192,
      "NBR": 8193,
      "ЗАКУ": 8194,
      "ЗАБОР": 8195,
      "ДАВЛЕНИЕМ": 8196,
      "ФИТ": 8197,
      "ЗАЩИТНЫХ": 8198,
      "СТОЙКОСТИ": 8199,
      "СЕЛЬСТРОЙ": 8200,
      "ВЕНТИЛИРУ": 8201,
      "ДОСТУ": 8202,
      "ИССЛЕДОВАНИЕ": 8203,
      "ФАСОВАННОЕ": 8204,
      "ГИБКАЯ": 8205,
      "КОТОРЫХ": 8206,
      "ОТНОСИТЕЛЬ": 8207,
      "РАЗМЕЩЕНИЕ": 8208,
      "ГВОЗДИ": 8209,
      "УСАДЕБ": 8210,
      "ГОРА": 8211,
      "ДИАГНОСТИЧЕСКОЕ": 8212,
      "САВУШКИ": 8213,
      "ZAL": 8214,
      "ИВАНИЯ": 8215,
      "ТИРОВАНИЯ": 8216,
      "ОБЛАВТОТРАНС": 8217,
      "ВАННЫЙ": 8218,
      "ИСХОД": 8219,
      "ЖЕНЬ": 8220,
      "ХАРАКТЕРИСТИКА": 8221,
      "КЛЕТ": 8222,
      "ЗУБО": 8223,
      "ЛИЗИНГО": 8224,
      "ГРП": 8225,
      "ПОВОРОТНАЯ": 8226,
      "РАЗЪЕДИНИТЕЛЬ": 8227,
      "ГОМЕЛЯ": 8228,
      "BASE": 8229,
      "ЗВУКО": 8230,
      "ПОЛЕС": 8231,
      "ЛЕВА": 8232,
      "РУДА": 8233,
      "МИНО": 8234,
      "КУРИ": 8235,
      "АРТЕ": 8236,
      "ОРШАНСКОГО": 8237,
      "БАНКОВ": 8238,
      "ЕННЫХ": 8239,
      "ЕННЫЕ": 8240,
      "РУЮЩИЕ": 8241,
      "ВОДНЫЙ": 8242,
      "СТОЛИК": 8243,
      "ЛЬНИКИ": 8244,
      "КОРПОРА": 8245,
      "ИНФОРМАЦИЮ": 8246,
      "СЛЕДУЮЩИЕ": 8247,
      "ВСПОМОГАТЕЛЬНЫХ": 8248,
      "ЕМКОСТЬЮ": 8249,
      "BU": 8250,
      "ZN": 8251,
      "АБРАЗИ": 8252,
      "РЕНА": 8253,
      "ТОЧНЫЕ": 8254,
      "ВИСКО": 8255,
      "ФОРСУ": 8256,
      "ЛОВУ": 8257,
      "СТАВКОЙ": 8258,
      "ПОЛОСКИ": 8259,
      "МОДУЛЕЙ": 8260,
      "ИНСТРУМЕНТЫ": 8261,
      "КАЛИБРОВКА": 8262,
      "ОТВЕРСТИЯМИ": 8263,
      "АВТОМАТИЗИРОВАННАЯ": 8264,
      "ПОСЕВНОЙ": 8265,
      "КАЖДОЙ": 8266,
      "СУШЕНЫЙ": 8267,
      "МАТЕРИНСКАЯ": 8268,
      "СЕМА": 8269,
      "ДУП": 8270,
      "ВОМУ": 8271,
      "МОКСИ": 8272,
      "ИНГРИ": 8273,
      "ЖАР": 8274,
      "ГРОДНЕНСКОЙ": 8275,
      "ФУРА": 8276,
      "ШКОЛЫ": 8277,
      "ЧУВ": 8278,
      "ОБРАБОТКЕ": 8279,
      "ГАРНИТУРА": 8280,
      "КОРИДО": 8281,
      "ПЛАСТМАССО": 8282,
      "ОБУЧЕНИЕМ": 8283,
      "КАЖДОГО": 8284,
      "МОЛОДЕЧНЕНСКИЙ": 8285,
      "ЛОГОЙСКИЙ": 8286,
      "ПЕНИЦИЛ": 8287,
      "MT": 8288,
      "КУБО": 8289,
      "ГЛУБОКОЕ": 8290,
      "DRI": 8291,
      "ОРА": 8292,
      "СЧЁТ": 8293,
      "СЕТЯ": 8294,
      "САДКИ": 8295,
      "РАБОТО": 8296,
      "РЫХ": 8297,
      "НИКНОВ": 8298,
      "ОСТРОВЛЯ": 8299,
      "КЗТШ": 8300,
      "ВЕТЕРИНАРНАЯ": 8301,
      "КРЕПЕЖОМ": 8302,
      "ФОЛЬГОЙ": 8303,
      "ИНФРАСТРУКТУРА": 8304,
      "ТЕРМОУСАДОЧНАЯ": 8305,
      "ПРОЕКТИРУЕМАЯ": 8306,
      "АНТИСЛЕЖИВАЮЩИЙ": 8307,
      "ТРУДА": 8308,
      "КЛИЧЕВ": 8309,
      "СЕМАШКО": 8310,
      "ТМИН": 8311,
      "ЧСКОГО": 8312,
      "ЗАЛИ": 8313,
      "ПРОКАТ": 8314,
      "МИКА": 8315,
      "ВОЗДЕЙСТВИЯ": 8316,
      "АРМ": 8317,
      "КАБЕЛЬНЫХ": 8318,
      "COUL": 8319,
      "МНОГОСЛОЙ": 8320,
      "ГАЗОАППАРАТ": 8321,
      "ПОДЪЕЗДА": 8322,
      "PROF": 8323,
      "РЕГИСТРАТОР": 8324,
      "КОЛАСА": 8325,
      "КОЛПАЧОК": 8326,
      "ПОГРУЖНОЙ": 8327,
      "ПОСТОЯННОГО": 8328,
      "ПРОХОЖДЕНИЕМ": 8329,
      "ЕМОМУ": 8330,
      "УКРА": 8331,
      "КОМАРОВА": 8332,
      "КАРДИОЛОГИЯ": 8333,
      "DIS": 8334,
      "ЖР": 8335,
      "СТРЕЙ": 8336,
      "РЕШЕНИЯ": 8337,
      "ЛИТРА": 8338,
      "ONAL": 8339,
      "БЕЛОРУССКИХ": 8340,
      "ГЕНЕРАЛЬНОГО": 8341,
      "СВОЙСТВАМИ": 8342,
      "ПОТРЕБНОСТИ": 8343,
      "ГЛЯНЕЦ": 8344,
      "ТЕТРАЦИ": 8345,
      "ПОТОЛКА": 8346,
      "БЕТОНО": 8347,
      "КАЛИБРАТОРЫ": 8348,
      "ПОТЕНЦИАЛЬНОГО": 8349,
      "АЛЕКСАНДРИЙ": 8350,
      "COULTER": 8351,
      "КАТЕГОРИ": 8352,
      "ЗАПРАВКА": 8353,
      "NOR": 8354,
      "РАБ": 8355,
      "ВАЛЮ": 8356,
      "ТАКТИ": 8357,
      "ДЕЗ": 8358,
      "ПИТ": 8359,
      "ЖАЛЮ": 8360,
      "АГЕНТА": 8361,
      "ОБЪЕМЕ": 8362,
      "ВЕДРО": 8363,
      "АВТОМОБИЛЬНЫЕ": 8364,
      "ТУРБИНЫ": 8365,
      "МТК": 8366,
      "АЛЮМИНИЕВЫХ": 8367,
      "БЕЗОПАС": 8368,
      "ВСЮ": 8369,
      "ЗЕЛЕНАЯ": 8370,
      "ВАКУУМНОЙ": 8371,
      "СУЩЕСТВУЮЩИХ": 8372,
      "ВЛАЖНОСТЬ": 8373,
      "КОШЕЛЕВО": 8374,
      "ТРАНСМИССИОН": 8375,
      "АЛЕКСАНДРИЙСКОЕ": 8376,
      "KU": 8377,
      "РУДАКОВО": 8378,
      "ЗКИ": 8379,
      "СИСТЕМУ": 8380,
      "ЭЛЕКТРООБОРУДОВАНИЯ": 8381,
      "КОЛИЧЕСТВА": 8382,
      "КАБЕЛЕЙ": 8383,
      "ДОБАВКИ": 8384,
      "УПРАВЛЕНИЕМ": 8385,
      "ДОПОЛНИТЕЛЬНОЕ": 8386,
      "МОРСКАЯ": 8387,
      "ДЛИННОЙ": 8388,
      "РЕАКЦИИ": 8389,
      "ЗАКУПАЕМОГО": 8390,
      "ФРАНЦИЯ": 8391,
      "ПЕРИОДИ": 8392,
      "ФЕДЕРАЦИЯ": 8393,
      "SECUR": 8394,
      "ПОКРОВ": 8395,
      "СЛУЦК": 8396,
      "ППА": 8397,
      "ШРОТ": 8398,
      "ЛЕТА": 8399,
      "РУБИ": 8400,
      "ЧАТЫЕ": 8401,
      "ПЕРВОЙ": 8402,
      "ЗЕРНОВЫХ": 8403,
      "МИКРООРГАНИЗ": 8404,
      "РАСТВОРИТЕЛЬ": 8405,
      "ECT": 8406,
      "РУЛОНОВ": 8407,
      "ШУРУ": 8408,
      "ТОРМОЗНОЙ": 8409,
      "УРОЖАЯ": 8410,
      "КОСТЮКОВИЧИ": 8411,
      "ДОЛГОБРОД": 8412,
      "OG": 8413,
      "ЖБИ": 8414,
      "НИТЕЙ": 8415,
      "ТАЛЬНЫЙ": 8416,
      "НЕОЛЕЧЕНИЯ": 8417,
      "УЧИХ": 8418,
      "ЖИТЕЛЬ": 8419,
      "АВТОНОМ": 8420,
      "ЛОЖКА": 8421,
      "БРЕСТГАЗОАППАРАТ": 8422,
      "НИКАМИ": 8423,
      "ШКАФОВ": 8424,
      "ИМБИ": 8425,
      "ПРОВЕДЕНИИ": 8426,
      "ГАЗОВЫХ": 8427,
      "SKY": 8428,
      "NEW": 8429,
      "ФОЛЬГИ": 8430,
      "ПОДТВЕРЖДАЮЩИЕ": 8431,
      "РАССМАТРИВАЮТСЯ": 8432,
      "БАЛЬНЕОЛЕЧЕНИЯ": 8433,
      "ГВАР": 8434,
      "ЛИЗ": 8435,
      "ШКЛОВСКАЯ": 8436,
      "GPS": 8437,
      "ZOR": 8438,
      "НКЕ": 8439,
      "ОГУР": 8440,
      "РОЗЫ": 8441,
      "СОС": 8442,
      "ВОДООТ": 8443,
      "КВАРТИР": 8444,
      "СОВЕТСКИХ": 8445,
      "КИСЛОТНОЕ": 8446,
      "КЛЮЧЕНИЙ": 8447,
      "BAX": 8448,
      "ОКРАШИ": 8449,
      "ВКЛЮЧИТЕЛЬНО": 8450,
      "ДЛИННА": 8451,
      "СУЩЕСТВУЮЩЕЙ": 8452,
      "КРЕПЕЖ": 8453,
      "VOSTOCH": 8454,
      "АНТИТЕЛА": 8455,
      "РАЗВИТИЯ": 8456,
      "СЛЕДСТВЕННЫЙ": 8457,
      "МЕРОПРИ": 8458,
      "VOSTOCHNY": 8459,
      "ЧКО": 8460,
      "АКТИВА": 8461,
      "КЛИМОВИЧСКАЯ": 8462,
      "БН": 8463,
      "ВАТЕЛЕЙ": 8464,
      "РАССМОТРЕ": 8465,
      "КРОМЕ": 8466,
      "ПРОВЕДЕНИЕМ": 8467,
      "НПВХ": 8468,
      "ВЫСОТЕ": 8469,
      "ACE": 8470,
      "ИЗОЛЯЦИОННАЯ": 8471,
      "ПОДЪЕМНИК": 8472,
      "МЕХАНИЧЕСКАЯ": 8473,
      "УГОЛЬНИК": 8474,
      "УПЛОТНЕНИЙ": 8475,
      "ОБЕСПЕЧИВАТЬ": 8476,
      "KAZAK": 8477,
      "ЛАБОРАТОРНОГО": 8478,
      "ИЗМЕРИТЕЛЬНЫХ": 8479,
      "КЕРАМИЧЕСКОЙ": 8480,
      "КАРКАС": 8481,
      "ТЕРМОУСАЖИ": 8482,
      "ГГКБ": 8483,
      "ГУКДСП": 8484,
      "MOBIL": 8485,
      "МОЖЕ": 8486,
      "ВЕДОМО": 8487,
      "ПОЛНЫЙ": 8488,
      "ЛЕЛЬЧИЦКАЯ": 8489,
      "ТЕСТО": 8490,
      "ВЕСО": 8491,
      "ВЕСОВАЯ": 8492,
      "ВЫВОДА": 8493,
      "КОНВЕК": 8494,
      "ДУТ": 8495,
      "РЕЗИНОВЫЙ": 8496,
      "ВХОДНОЙ": 8497,
      "АБСОЛЮ": 8498,
      "ГЕМОГЛО": 8499,
      "ПАРТИЗАНСКОГО": 8500,
      "ПРОЦЕССОРА": 8501,
      "ВИТРАЖЕЙ": 8502,
      "НИЦКОГО": 8503,
      "НАРУ": 8504,
      "ВЕЛО": 8505,
      "ТЕЛЬНОЕ": 8506,
      "ИНТЕРНАЦИОНАЛИСТОВ": 8507,
      "PRI": 8508,
      "TUR": 8509,
      "ИМЕННО": 8510,
      "УСЫ": 8511,
      "КАССО": 8512,
      "МОРЕ": 8513,
      "ТИВИ": 8514,
      "СУТОК": 8515,
      "ШЕВИЧИ": 8516,
      "ВЯЗА": 8517,
      "РАСХОДЫ": 8518,
      "ЯЩИЕ": 8519,
      "ШТАН": 8520,
      "СТОРОНЕ": 8521,
      "МЕСЯЦА": 8522,
      "ОПОРНЫЙ": 8523,
      "ШПРИЦЕ": 8524,
      "ПОГРАНИЧНИКОВ": 8525,
      "ОХЛАЖДЕННАЯ": 8526,
      "ЭНДОСКОПОВ": 8527,
      "МЕМБРАНА": 8528,
      "МИТ": 8529,
      "СЕРВИСНЫЙ": 8530,
      "ТРАНЗИТ": 8531,
      "ИНЖИНИРИНГ": 8532,
      "GRO": 8533,
      "WH": 8534,
      "ZA": 8535,
      "ЧНУЮ": 8536,
      "ШВЕ": 8537,
      "РЫСКИ": 8538,
      "ЛЮДЕЙ": 8539,
      "ЭЛЕКТРИЧЕСКОГО": 8540,
      "ДАТЧИКОВ": 8541,
      "СЕНСОР": 8542,
      "МЯГКИЙ": 8543,
      "БУЛЬДО": 8544,
      "ГОВЯДИНА": 8545,
      "ПРОГРАММЫ": 8546,
      "ЧУВСТВИ": 8547,
      "ВОЗДУШНОЙ": 8548,
      "CLO": 8549,
      "СЦЕ": 8550,
      "ШПО": 8551,
      "БРЕСТА": 8552,
      "ЧЕРНЯ": 8553,
      "ОПРЫСКИ": 8554,
      "ПАКЕТА": 8555,
      "ВАКУУ": 8556,
      "КРУГЛЯ": 8557,
      "НОМИНАЛЬНОЙ": 8558,
      "ОМР": 8559,
      "ТВЕРДЫЙ": 8560,
      "КНИГ": 8561,
      "НАВЕСНОЙ": 8562,
      "РАВНОМЕР": 8563,
      "ЗАКВАСКА": 8564,
      "НАЛАДКУ": 8565,
      "РЕЗЕРВУАРА": 8566,
      "ХВОЙНЫХ": 8567,
      "ЭКИПА": 8568,
      "КНИЖ": 8569,
      "КЛИМОВИЧСКИЙ": 8570,
      "ХОЙНИКИ": 8571,
      "АНО": 8572,
      "БКА": 8573,
      "РЕКОНСТРУКЦИИ": 8574,
      "ПОГРЕ": 8575,
      "ЕННАЯ": 8576,
      "БОКОВОЙ": 8577,
      "ИЗЛУЧ": 8578,
      "СТОЛА": 8579,
      "ЛЬНИКОВ": 8580,
      "ЖЕЛИРУЮЩИЙ": 8581,
      "ШЕННЫХ": 8582,
      "РЕГИОНА": 8583,
      "КАЧЕСТВУ": 8584,
      "ТЕКСТА": 8585,
      "БУМАЖНАЯ": 8586,
      "СЫРОКОПЧЕНЫХ": 8587,
      "ЗИОННАЯ": 8588,
      "ОТКЛОНЕНИЕ": 8589,
      "ПРЕДЪЯВЛЯ": 8590,
      "КОНСОЛИДИРОВАННОЙ": 8591,
      "СТРЕЙЧ": 8592,
      "SECURITY": 8593,
      "МЕЛО": 8594,
      "БУЛЬВАР": 8595,
      "ИП": 8596,
      "ТОСПЕЦСТРОЙ": 8597,
      "ПРЕМИ": 8598,
      "СТИМУ": 8599,
      "UTP": 8600,
      "СТОЙКИЕ": 8601,
      "ПОЖАРНЫЙ": 8602,
      "ТИЗАЦИЯ": 8603,
      "ПОДШИПНИКОВ": 8604,
      "ТЭМ": 8605,
      "СВИНАЯ": 8606,
      "ВЕНТИЛЯЦИЯ": 8607,
      "КРИВО": 8608,
      "ВСЕЙ": 8609,
      "ОТДЕЛА": 8610,
      "СТОМАТОЛОГИЧЕСКИЕ": 8611,
      "ПОЗИЦИЙ": 8612,
      "СЛАВГОРОД": 8613,
      "ЗАПРОС": 8614,
      "ПРОБКА": 8615,
      "ШАХТОСПЕЦСТРОЙ": 8616,
      "ПОСЛЕДУЮЩИМ": 8617,
      "ПРИНАДЛЕЖНОСТИ": 8618,
      "КОТОРОГО": 8619,
      "ДЕКЛАРАЦИИ": 8620,
      "КРАХМАЛ": 8621,
      "ВИТРИНА": 8622,
      "ПЕРЕСЧЕТЕ": 8623,
      "ПОЗВОЛЯ": 8624,
      "KAZAKHSTAN": 8625,
      "РЕСПУБЛИКАНСКАЯ": 8626,
      "БЕЛЫНИЧИ": 8627,
      "СТОЛИНСКАЯ": 8628,
      "MC": 8629,
      "YTE": 8630,
      "ВВГНГ": 8631,
      "ДВО": 8632,
      "КЛУ": 8633,
      "УН": 8634,
      "КУСКО": 8635,
      "САЛЬ": 8636,
      "ХОВА": 8637,
      "БАТОН": 8638,
      "ФИБРО": 8639,
      "МИНУС": 8640,
      "ЗИОЛОГИИ": 8641,
      "ГЕНА": 8642,
      "КЕРАМИН": 8643,
      "НАПРАВЛЕНИИ": 8644,
      "ЕДИНИЦА": 8645,
      "ЗВЕЗДОЧКА": 8646,
      "ГЕМАТОЛОГИЧЕСКИХ": 8647,
      "КАПСУ": 8648,
      "ПОДДЕРЖКЕ": 8649,
      "ZORBAX": 8650,
      "ГВ": 8651,
      "РОСТ": 8652,
      "ВОЛКОВЫССКАЯ": 8653,
      "НАРКО": 8654,
      "ЗАЛ": 8655,
      "БОПП": 8656,
      "НЕИСПРА": 8657,
      "ДЕС": 8658,
      "ОТРИ": 8659,
      "ЧИТЬ": 8660,
      "ПРОЕКТУ": 8661,
      "УКАЗАНА": 8662,
      "ВЕРХНЕЙ": 8663,
      "ПРИМЕНЕНИЕ": 8664,
      "АВСТРИЯ": 8665,
      "ЯЩИКИ": 8666,
      "САНИТАРНОМУ": 8667,
      "ОБЕСПЕЧЕНИЕМ": 8668,
      "СЫРОВЯ": 8669,
      "ЗАБОЛЕВАНИЙ": 8670,
      "YA": 8671,
      "ЖИЛЬ": 8672,
      "ЛЫНИЦКОГО": 8673,
      "ЖАБИНКА": 8674,
      "ТЕХНОЛОГИЯ": 8675,
      "БЯЛЫНИЦКОГО": 8676,
      "JI": 8677,
      "KAS": 8678,
      "NATION": 8679,
      "ГОВЫЙ": 8680,
      "ТЕРОМ": 8681,
      "КОМНАТ": 8682,
      "ПЕСКО": 8683,
      "УЧРЕЖДЕНИИ": 8684,
      "ВЛЕНИЙ": 8685,
      "ЖЕНЫ": 8686,
      "КЛИП": 8687,
      "БЛИЗИ": 8688,
      "МКФ": 8689,
      "СТЫЕ": 8690,
      "КОНКУРСА": 8691,
      "ЗЕРНОУБОРО": 8692,
      "НАЛАДКЕ": 8693,
      "КОНСЕРВАНТ": 8694,
      "ЦЕНТРОБЕЖНЫЙ": 8695,
      "MK": 8696,
      "ТЮ": 8697,
      "МЕС": 8698,
      "ПРОСПЕКТ": 8699,
      "НЕНСКАЯ": 8700,
      "ПОСТАВКЕ": 8701,
      "ШТОК": 8702,
      "ТОЧЕК": 8703,
      "РУЮЩАЯ": 8704,
      "ОБНАРУЖ": 8705,
      "ПРОБЕ": 8706,
      "АППАРАТНЫЙ": 8707,
      "ТОВАРУ": 8708,
      "СУБЪЕ": 8709,
      "СИЛИКА": 8710,
      "МЕТАЛЛИЧЕСКОГО": 8711,
      "APC": 8712,
      "КОЛЬЦОМ": 8713,
      "ЛИСТОВОЙ": 8714,
      "ХОЛОДИЛЬНОГО": 8715,
      "ОСНАСТ": 8716,
      "ЗЕЛЬВЕН": 8717,
      "МЕЛКО": 8718,
      "МЭТЗ": 8719,
      "ЗАТВОРА": 8720,
      "ФУНКЦИИ": 8721,
      "РАСХОДОМЕРОВ": 8722,
      "ОЧЕРЕДИ": 8723,
      "ФЛУОРЕС": 8724,
      "МОНОЛИ": 8725,
      "MILL": 8726,
      "SET": 8727,
      "УЧЕТ": 8728,
      "ГОМО": 8729,
      "МЕРИ": 8730,
      "ОБЩАЯ": 8731,
      "ЖИЛЫ": 8732,
      "ПЕРЕДНЕЙ": 8733,
      "СЛОЕМ": 8734,
      "МЕДИЦИНСКОЕ": 8735,
      "КОРПУСОВ": 8736,
      "СМОЛА": 8737,
      "УЧАСТНИКОМ": 8738,
      "ДЕРЕВО": 8739,
      "ДВИГАТЕЛЕМ": 8740,
      "SYS": 8741,
      "УБОРКА": 8742,
      "ПОДДОН": 8743,
      "БАЗОВАЯ": 8744,
      "СОПРОТИВЛЕНИЕ": 8745,
      "ОСТЕКЛЕНИЯ": 8746,
      "ДОЛГИНОВСКИЙ": 8747,
      "NATIONAL": 8748,
      "ЭЛИТ": 8749,
      "КООПЕРА": 8750,
      "ЛИВА": 8751,
      "ДОРОРС": 8752,
      "СЕЛЕКЦИОННО": 8753,
      "ПСИХОНЕВРО": 8754,
      "ЛКУ": 8755,
      "НЬЮ": 8756,
      "ЮГО": 8757,
      "ДЕГИ": 8758,
      "ОТВ": 8759,
      "ПРЕДПРОЕКТНЫХ": 8760,
      "РАБОТКИ": 8761,
      "ПОДНО": 8762,
      "РАЗМЕТКИ": 8763,
      "РАСПЛА": 8764,
      "ГРАФА": 8765,
      "ГЛАЯ": 8766,
      "ВЕНТИЛЯТОРА": 8767,
      "ЛЕКАРСТВЕННЫХ": 8768,
      "КРУПСКОЙ": 8769,
      "УРОВНЕ": 8770,
      "СОЛИГОРСКЕ": 8771,
      "СПЕЦЖЕЛЕЗОБЕТОН": 8772,
      "КОМПРЕССОРНОЙ": 8773,
      "МАНЖЕТЫ": 8774,
      "ПЕРЕДАЧА": 8775,
      "ГАРАЖ": 8776,
      "ЛАМПЫ": 8777,
      "ПРЕТЕНДЕН": 8778,
      "ШАРНИ": 8779,
      "ЛЕЛЬЧИЦЫ": 8780,
      "ШПИЛЬКА": 8781,
      "АНЕСТЕ": 8782,
      "УДЛИНЕНИЕ": 8783,
      "ТУРИ": 8784,
      "ГРАВИ": 8785,
      "БРАТЬ": 8786,
      "МЕЛИОВОДХОЗ": 8787,
      "HV": 8788,
      "SF": 8789,
      "РОЛЛЕ": 8790,
      "ТИНГ": 8791,
      "ЦИКЛО": 8792,
      "ПРОВОДИ": 8793,
      "ПРИБОРЫ": 8794,
      "ПРИПРЕССО": 8795,
      "ЧЕРНИ": 8796,
      "ПРОИЗВОДИТЕЛЕЙ": 8797,
      "ЮЩИХСЯ": 8798,
      "ЦЕПНОЙ": 8799,
      "МИНЕРАЛЬНЫХ": 8800,
      "СКОРОСТ": 8801,
      "ПОСЕВНЫХ": 8802,
      "ЭЛЕКТРОДВИГАТЕЛЕМ": 8803,
      "LASER": 8804,
      "ГОЛД": 8805,
      "ВОЗВРАЩА": 8806,
      "ЛУНИНЕЦКАЯ": 8807,
      "СОЗРЕВАНИЯ": 8808,
      "ПРИПРЕССОВКА": 8809,
      "АППАРАТУРА": 8810,
      "ЛИЗИНГ": 8811,
      "КАНЦЕЛЯР": 8812,
      "ЖЕНИИ": 8813,
      "КАРТ": 8814,
      "ЭЛЕКТРОКАРДИО": 8815,
      "ПЫЛИ": 8816,
      "ОКОННЫЕ": 8817,
      "ГИДРАВЛИЧЕСКОЕ": 8818,
      "FORCE": 8819,
      "ДИФФЕРЕН": 8820,
      "СЕЯЛКА": 8821,
      "COLOR": 8822,
      "ПАСТЕРИЗОВАН": 8823,
      "DV": 8824,
      "EW": 8825,
      "ЭЛЕКТРОННОЙ": 8826,
      "ЗАЩИТЕ": 8827,
      "BON": 8828,
      "АФ": 8829,
      "РАПСО": 8830,
      "ПОПЕРЕ": 8831,
      "ХОДОМ": 8832,
      "РАЙОНИ": 8833,
      "БОЛЬНИЦЫ": 8834,
      "СМТ": 8835,
      "ПРОЦЕСС": 8836,
      "НАРУЖНЫЕ": 8837,
      "ЖИДКОСТЕЙ": 8838,
      "ГОФРА": 8839,
      "МЕХАНИЧЕСКОГО": 8840,
      "ТОРГОВ": 8841,
      "СМОЛЕВИЧСКИЙ": 8842,
      "ГОЛУБОЙ": 8843,
      "АТТЕСТАЦИИ": 8844,
      "ЖАРКОВСКОГО": 8845,
      "РОСТА": 8846,
      "НАДЕ": 8847,
      "ТЕЛЬСТВА": 8848,
      "ХОЗЯЙСТВЕННОЕ": 8849,
      "JA": 8850,
      "LP": 8851,
      "АШТ": 8852,
      "НЦА": 8853,
      "ОРУ": 8854,
      "ЭТО": 8855,
      "МЕНТОМ": 8856,
      "ПОДСТАВКА": 8857,
      "ВАННЫХ": 8858,
      "КРОМ": 8859,
      "ДЕЛЕНИЕМ": 8860,
      "ТЕЛЕКОММУНИКА": 8861,
      "SHI": 8862,
      "БЕСШО": 8863,
      "ПЛАТФОРМЕ": 8864,
      "ВЛАЖНОСТИ": 8865,
      "ПОТОЛОЧНЫЙ": 8866,
      "СЕДЛО": 8867,
      "САВЧЕНКО": 8868,
      "ВТОРОЙ": 8869,
      "ГЛУС": 8870,
      "КАМЕНЕЦ": 8871,
      "МАЛОРИТСКАЯ": 8872,
      "ДБ": 8873,
      "УКУ": 8874,
      "МАЛЯ": 8875,
      "БЕТА": 8876,
      "БУДУТ": 8877,
      "ФЕДЮ": 8878,
      "ОРГАНОВ": 8879,
      "РОВОЧНОГО": 8880,
      "ОПТИЧЕСКИЕ": 8881,
      "СТОЯНКА": 8882,
      "РАСТВОРОВ": 8883,
      "КЕРАМО": 8884,
      "ГНЕЗДО": 8885,
      "ФОСФОР": 8886,
      "МЕЖРАЙОННЫЙ": 8887,
      "ОКСИД": 8888,
      "ПОДОШВА": 8889,
      "ЧАТОЕ": 8890,
      "СЫВОРОТКИ": 8891,
      "ФИРМЕННАЯ": 8892,
      "РУКОВОДСТВО": 8893,
      "ГВАРДЕЙ": 8894,
      "ПОГРЕШ": 8895,
      "ЛКП": 8896,
      "СТЬЕ": 8897,
      "РЕСУРСЫ": 8898,
      "AUT": 8899,
      "CAL": 8900,
      "АЙ": 8901,
      "ПРОСТОЙ": 8902,
      "ВИЦЫ": 8903,
      "ДИРОВАННАЯ": 8904,
      "СТЕНЫ": 8905,
      "ВЕТКА": 8906,
      "ПЕРЕХОДОВ": 8907,
      "ЦИЯМИ": 8908,
      "ПЛОСКИЙ": 8909,
      "РАЗМЕРАМИ": 8910,
      "ДИАГНОСТИКЕ": 8911,
      "РЕЗИНО": 8912,
      "ЛИЗИНГУ": 8913,
      "ТРАНСФОРМАТОРОМ": 8914,
      "ХИРУРГИЧЕСКИЕ": 8915,
      "КОРМОВОЙ": 8916,
      "УПЛОТНИТЕЛЬНАЯ": 8917,
      "ОФОРМЛЕНИЯ": 8918,
      "ШТАМПО": 8919,
      "СКОЛЬЗ": 8920,
      "СИЛИКОНОВЫЙ": 8921,
      "ВКУСОАРОМА": 8922,
      "СУБЪЕКТОВ": 8923,
      "LAB": 8924,
      "КАНАЛИЗАЦИОННОГО": 8925,
      "ПЛОЩАДЬ": 8926,
      "ЧЕРНЯХО": 8927,
      "ВСК": 8928,
      "ПСТ": 8929,
      "ГОВ": 8930,
      "DELL": 8931,
      "САМИ": 8932,
      "СТЕНОВАЯ": 8933,
      "СТОЛОВАЯ": 8934,
      "ТРЕНИ": 8935,
      "ЖЕКТОР": 8936,
      "ПРОЕМА": 8937,
      "ЭЛЕКТРОННЫХ": 8938,
      "MASTER": 8939,
      "МОНОБЛОК": 8940,
      "ЭТАЖЕ": 8941,
      "АДМИНИСТРАЦИИ": 8942,
      "ПРЕДСТАВИТЕЛЯ": 8943,
      "ОБРЕЗА": 8944,
      "ШИРИНЕ": 8945,
      "КАССЕТЫ": 8946,
      "ЭКСКАВАТОРА": 8947,
      "СЕВЕРНЫЙ": 8948,
      "ЮНО": 8949,
      "КОССОВ": 8950,
      "КИН": 8951,
      "ИНФОРМАЦИОННЫХ": 8952,
      "РАСТЯ": 8953,
      "КОЖНО": 8954,
      "РОП": 8955,
      "ЛЕНА": 8956,
      "ДЕМОНТАЖУ": 8957,
      "ГАСТЕЛ": 8958,
      "КУРА": 8959,
      "БИНОЙ": 8960,
      "ГЛАЗУ": 8961,
      "ГЕПА": 8962,
      "БРИЛЕВО": 8963,
      "ПОЛОЦКЕ": 8964,
      "КРУГЛАЯ": 8965,
      "ДИСПЛЕ": 8966,
      "ДЫМОВОЙ": 8967,
      "СВОЕМ": 8968,
      "ЗАДВИЖКИ": 8969,
      "КОНВЕЙЕРА": 8970,
      "ПОДВЕСНОЙ": 8971,
      "УДЛИНЕН": 8972,
      "АВТ": 8973,
      "ДОВАЯ": 8974,
      "ВИР": 8975,
      "КОБРИНСКАЯ": 8976,
      "МОСКОВСКАЯ": 8977,
      "TEL": 8978,
      "ЯЯ": 8979,
      "КАКАО": 8980,
      "ПЕШЕ": 8981,
      "БАЗИ": 8982,
      "ВАННА": 8983,
      "ЧЕТВЕР": 8984,
      "НИКОВЫЙ": 8985,
      "ПОЛИМЕРНЫХ": 8986,
      "КОРМОУБОРОЧНОГО": 8987,
      "ПЕРВОМАЙСКОЙ": 8988,
      "РАСПРЕДЕЛИТЕЛЬНОЕ": 8989,
      "СЕКЦИОННЫЕ": 8990,
      "РОССИЙСКОЙ": 8991,
      "ОТПРАВИТЕЛЯ": 8992,
      "ДОСТУПОМ": 8993,
      "ИМБИРЬ": 8994,
      "ЭКИПАЖЕМ": 8995,
      "ПРОИЗВОДСТВЕННО": 8996,
      "АВТОМОБИЛЬНАЯ": 8997,
      "ЕДИНИЦЫ": 8998,
      "ПОКАЗАТЕЛЕЙ": 8999,
      "ДОЛГОБРОДСКАЯ": 9000,
      "LD": 9001,
      "MARK": 9002,
      "ОЗЕЛЕН": 9003,
      "РСМО": 9004,
      "СЧЕТА": 9005,
      "ПРИТОЧНО": 9006,
      "ОТХОДА": 9007,
      "ТУШИ": 9008,
      "ЦЕЙ": 9009,
      "СРЕДНЕЙ": 9010,
      "КОМПАКТ": 9011,
      "АНКЕ": 9012,
      "ДРОБИ": 9013,
      "НАСОСЫ": 9014,
      "РОВОЧНЫХ": 9015,
      "ДОПОЛНИТЕЛЬНЫХ": 9016,
      "ШУМО": 9017,
      "ЛЕГКО": 9018,
      "АДМИНИСТРАТИВНОМ": 9019,
      "ХРАНИЛИ": 9020,
      "ПОСЛЕДУЮЩЕГО": 9021,
      "ДЕКОРАТИВНАЯ": 9022,
      "ЛАЙТ": 9023,
      "РЕКОМЕНДА": 9024,
      "ЗЕРКАЛО": 9025,
      "РАССАСЫВАЮЩИЙСЯ": 9026,
      "РСМОБ": 9027,
      "СТИК": 9028,
      "ПОЛНОГО": 9029,
      "ВЕНЕРО": 9030,
      "АМКО": 9031,
      "ВКЛЮЧЕНИЯ": 9032,
      "СЧИ": 9033,
      "СОЛЯ": 9034,
      "СОЛЕЙ": 9035,
      "ПРОКЛАДКАМИ": 9036,
      "ПОЛИЭТИЛЕНОВЫЙ": 9037,
      "ХИМИЧЕСКИЕ": 9038,
      "BOX": 9039,
      "СТОРОНА": 9040,
      "СОГЛАСОВАТЬ": 9041,
      "СОЕДИНИТЕЛЬНЫЙ": 9042,
      "ОЗИМОЙ": 9043,
      "ЭФФЕКТИВ": 9044,
      "УГЛЕРОДИ": 9045,
      "ПЕЧАТАНИЮ": 9046,
      "ПЛАНШЕТ": 9047,
      "БЕСКОСТ": 9048,
      "ОФИЦИА": 9049,
      "СЫРОВЯЛЕ": 9050,
      "СИНА": 9051,
      "ЭКСПОРТ": 9052,
      "ТЕХНОЛОГИЧЕСКИЙ": 9053,
      "ОЛИМПИЙСКОГО": 9054,
      "HN": 9055,
      "JIN": 9056,
      "ЛЛ": 9057,
      "УКАЗЫ": 9058,
      "НИНСКОГО": 9059,
      "КОТЕЛЬНАЯ": 9060,
      "ПОСАДО": 9061,
      "МОСТЫ": 9062,
      "ВИШ": 9063,
      "ЛЮБИ": 9064,
      "КАБЕЛЬНЫЙ": 9065,
      "ДРЕВЕС": 9066,
      "БЕСЦВЕТНАЯ": 9067,
      "СВЕТОДИОДНЫЕ": 9068,
      "СУЛЬФАТА": 9069,
      "ПОТРЕБЛЯ": 9070,
      "ПРЕТЕНДЕНТ": 9071,
[...]
